{
  "version": "1.0",
  "truncation": null,
  "padding": null,
  "added_tokens": [
    {
      "id": 0,
      "content": "„",
      "single_word": false,
      "lstrip": false,
      "rstrip": false,
      "normalized": false,
      "special": true
    },
    {
      "id": 1,
      "content": "”",
      "single_word": false,
      "lstrip": false,
      "rstrip": false,
      "normalized": false,
      "special": true
    },
    {
      "id": 2,
      "content": "!",
      "single_word": false,
      "lstrip": false,
      "rstrip": false,
      "normalized": false,
      "special": true
    },
    {
      "id": 3,
      "content": "\"",
      "single_word": false,
      "lstrip": false,
      "rstrip": false,
      "normalized": false,
      "special": true
    },
    {
      "id": 4,
      "content": "#",
      "single_word": false,
      "lstrip": false,
      "rstrip": false,
      "normalized": false,
      "special": true
    },
    {
      "id": 5,
      "content": "$",
      "single_word": false,
      "lstrip": false,
      "rstrip": false,
      "normalized": false,
      "special": true
    },
    {
      "id": 6,
      "content": "%",
      "single_word": false,
      "lstrip": false,
      "rstrip": false,
      "normalized": false,
      "special": true
    },
    {
      "id": 7,
      "content": "&",
      "single_word": false,
      "lstrip": false,
      "rstrip": false,
      "normalized": false,
      "special": true
    },
    {
      "id": 8,
      "content": "'",
      "single_word": false,
      "lstrip": false,
      "rstrip": false,
      "normalized": false,
      "special": true
    },
    {
      "id": 9,
      "content": "(",
      "single_word": false,
      "lstrip": false,
      "rstrip": false,
      "normalized": false,
      "special": true
    },
    {
      "id": 10,
      "content": ")",
      "single_word": false,
      "lstrip": false,
      "rstrip": false,
      "normalized": false,
      "special": true
    },
    {
      "id": 11,
      "content": "*",
      "single_word": false,
      "lstrip": false,
      "rstrip": false,
      "normalized": false,
      "special": true
    },
    {
      "id": 12,
      "content": "+",
      "single_word": false,
      "lstrip": false,
      "rstrip": false,
      "normalized": false,
      "special": true
    },
    {
      "id": 13,
      "content": ",",
      "single_word": false,
      "lstrip": false,
      "rstrip": false,
      "normalized": false,
      "special": true
    },
    {
      "id": 14,
      "content": "-",
      "single_word": false,
      "lstrip": false,
      "rstrip": false,
      "normalized": false,
      "special": true
    },
    {
      "id": 15,
      "content": ".",
      "single_word": false,
      "lstrip": false,
      "rstrip": false,
      "normalized": false,
      "special": true
    },
    {
      "id": 16,
      "content": "/",
      "single_word": false,
      "lstrip": false,
      "rstrip": false,
      "normalized": false,
      "special": true
    },
    {
      "id": 17,
      "content": ":",
      "single_word": false,
      "lstrip": false,
      "rstrip": false,
      "normalized": false,
      "special": true
    },
    {
      "id": 18,
      "content": ";",
      "single_word": false,
      "lstrip": false,
      "rstrip": false,
      "normalized": false,
      "special": true
    },
    {
      "id": 19,
      "content": "<",
      "single_word": false,
      "lstrip": false,
      "rstrip": false,
      "normalized": false,
      "special": true
    },
    {
      "id": 20,
      "content": "=",
      "single_word": false,
      "lstrip": false,
      "rstrip": false,
      "normalized": false,
      "special": true
    },
    {
      "id": 21,
      "content": ">",
      "single_word": false,
      "lstrip": false,
      "rstrip": false,
      "normalized": false,
      "special": true
    },
    {
      "id": 22,
      "content": "?",
      "single_word": false,
      "lstrip": false,
      "rstrip": false,
      "normalized": false,
      "special": true
    },
    {
      "id": 23,
      "content": "@",
      "single_word": false,
      "lstrip": false,
      "rstrip": false,
      "normalized": false,
      "special": true
    },
    {
      "id": 24,
      "content": "[",
      "single_word": false,
      "lstrip": false,
      "rstrip": false,
      "normalized": false,
      "special": true
    },
    {
      "id": 25,
      "content": "\\",
      "single_word": false,
      "lstrip": false,
      "rstrip": false,
      "normalized": false,
      "special": true
    },
    {
      "id": 26,
      "content": "]",
      "single_word": false,
      "lstrip": false,
      "rstrip": false,
      "normalized": false,
      "special": true
    },
    {
      "id": 27,
      "content": "^",
      "single_word": false,
      "lstrip": false,
      "rstrip": false,
      "normalized": false,
      "special": true
    },
    {
      "id": 28,
      "content": "_",
      "single_word": false,
      "lstrip": false,
      "rstrip": false,
      "normalized": false,
      "special": true
    },
    {
      "id": 29,
      "content": "`",
      "single_word": false,
      "lstrip": false,
      "rstrip": false,
      "normalized": false,
      "special": true
    },
    {
      "id": 30,
      "content": "{",
      "single_word": false,
      "lstrip": false,
      "rstrip": false,
      "normalized": false,
      "special": true
    },
    {
      "id": 31,
      "content": "|",
      "single_word": false,
      "lstrip": false,
      "rstrip": false,
      "normalized": false,
      "special": true
    },
    {
      "id": 32,
      "content": "}",
      "single_word": false,
      "lstrip": false,
      "rstrip": false,
      "normalized": false,
      "special": true
    },
    {
      "id": 33,
      "content": "~",
      "single_word": false,
      "lstrip": false,
      "rstrip": false,
      "normalized": false,
      "special": true
    },
    {
      "id": 34,
      "content": "0",
      "single_word": false,
      "lstrip": false,
      "rstrip": false,
      "normalized": false,
      "special": true
    },
    {
      "id": 35,
      "content": "1",
      "single_word": false,
      "lstrip": false,
      "rstrip": false,
      "normalized": false,
      "special": true
    },
    {
      "id": 36,
      "content": "2",
      "single_word": false,
      "lstrip": false,
      "rstrip": false,
      "normalized": false,
      "special": true
    },
    {
      "id": 37,
      "content": "3",
      "single_word": false,
      "lstrip": false,
      "rstrip": false,
      "normalized": false,
      "special": true
    },
    {
      "id": 38,
      "content": "4",
      "single_word": false,
      "lstrip": false,
      "rstrip": false,
      "normalized": false,
      "special": true
    },
    {
      "id": 39,
      "content": "5",
      "single_word": false,
      "lstrip": false,
      "rstrip": false,
      "normalized": false,
      "special": true
    },
    {
      "id": 40,
      "content": "6",
      "single_word": false,
      "lstrip": false,
      "rstrip": false,
      "normalized": false,
      "special": true
    },
    {
      "id": 41,
      "content": "7",
      "single_word": false,
      "lstrip": false,
      "rstrip": false,
      "normalized": false,
      "special": true
    },
    {
      "id": 42,
      "content": "8",
      "single_word": false,
      "lstrip": false,
      "rstrip": false,
      "normalized": false,
      "special": true
    },
    {
      "id": 43,
      "content": "9",
      "single_word": false,
      "lstrip": false,
      "rstrip": false,
      "normalized": false,
      "special": true
    },
    {
      "id": 44,
      "content": " ",
      "single_word": false,
      "lstrip": false,
      "rstrip": false,
      "normalized": false,
      "special": true
    },
    {
      "id": 45,
      "content": "\t",
      "single_word": false,
      "lstrip": false,
      "rstrip": false,
      "normalized": false,
      "special": true
    },
    {
      "id": 46,
      "content": "\n",
      "single_word": false,
      "lstrip": false,
      "rstrip": false,
      "normalized": false,
      "special": true
    },
    {
      "id": 47,
      "content": "\r",
      "single_word": false,
      "lstrip": false,
      "rstrip": false,
      "normalized": false,
      "special": true
    },
    {
      "id": 48,
      "content": "\f",
      "single_word": false,
      "lstrip": false,
      "rstrip": false,
      "normalized": false,
      "special": true
    },
    {
      "id": 49,
      "content": "\u000b",
      "single_word": false,
      "lstrip": false,
      "rstrip": false,
      "normalized": false,
      "special": true
    }
  ],
  "normalizer": null,
  "pre_tokenizer": {
    "type": "Whitespace"
  },
  "post_processor": null,
  "decoder": null,
  "model": {
    "type": "BPE",
    "dropout": null,
    "unk_token": null,
    "continuing_subword_prefix": null,
    "end_of_word_suffix": null,
    "fuse_unk": false,
    "byte_fallback": false,
    "vocab": {
      "„": 0,
      "”": 1,
      "!": 2,
      "\"": 3,
      "#": 4,
      "$": 5,
      "%": 6,
      "&": 7,
      "'": 8,
      "(": 9,
      ")": 10,
      "*": 11,
      "+": 12,
      ",": 13,
      "-": 14,
      ".": 15,
      "/": 16,
      ":": 17,
      ";": 18,
      "<": 19,
      "=": 20,
      ">": 21,
      "?": 22,
      "@": 23,
      "[": 24,
      "\\": 25,
      "]": 26,
      "^": 27,
      "_": 28,
      "`": 29,
      "{": 30,
      "|": 31,
      "}": 32,
      "~": 33,
      "0": 34,
      "1": 35,
      "2": 36,
      "3": 37,
      "4": 38,
      "5": 39,
      "6": 40,
      "7": 41,
      "8": 42,
      "9": 43,
      " ": 44,
      "\t": 45,
      "\n": 46,
      "\r": 47,
      "\f": 48,
      "\u000b": 49,
      "A": 50,
      "B": 51,
      "C": 52,
      "D": 53,
      "E": 54,
      "F": 55,
      "G": 56,
      "H": 57,
      "I": 58,
      "J": 59,
      "K": 60,
      "L": 61,
      "M": 62,
      "N": 63,
      "O": 64,
      "P": 65,
      "Q": 66,
      "R": 67,
      "S": 68,
      "T": 69,
      "U": 70,
      "V": 71,
      "W": 72,
      "X": 73,
      "Y": 74,
      "Z": 75,
      "a": 76,
      "b": 77,
      "c": 78,
      "d": 79,
      "e": 80,
      "f": 81,
      "g": 82,
      "h": 83,
      "i": 84,
      "j": 85,
      "k": 86,
      "l": 87,
      "m": 88,
      "n": 89,
      "o": 90,
      "p": 91,
      "q": 92,
      "r": 93,
      "s": 94,
      "t": 95,
      "u": 96,
      "v": 97,
      "w": 98,
      "x": 99,
      "y": 100,
      "z": 101,
      "": 102,
      "": 103,
      "": 104,
      "": 105,
      "": 106,
      "": 107,
      "": 108,
      "": 109,
      "": 110,
      "": 111,
      "": 112,
      "": 113,
      "": 114,
      "": 115,
      "": 116,
      "": 117,
      "": 118,
      "": 119,
      "": 120,
      "": 121,
      "": 122,
      "": 123,
      "": 124,
      "": 125,
      "": 126,
      "": 127,
      "": 128,
      "": 129,
      "": 130,
      "¡": 131,
      "¢": 132,
      "£": 133,
      "¤": 134,
      "¥": 135,
      "¦": 136,
      "§": 137,
      "¨": 138,
      "©": 139,
      "ª": 140,
      "«": 141,
      "¬": 142,
      "­": 143,
      "®": 144,
      "¯": 145,
      "°": 146,
      "±": 147,
      "²": 148,
      "³": 149,
      "´": 150,
      "µ": 151,
      "¶": 152,
      "·": 153,
      "¸": 154,
      "¹": 155,
      "º": 156,
      "»": 157,
      "¼": 158,
      "½": 159,
      "¾": 160,
      "¿": 161,
      "À": 162,
      "Á": 163,
      "Â": 164,
      "Ã": 165,
      "Ä": 166,
      "Å": 167,
      "Æ": 168,
      "Ç": 169,
      "È": 170,
      "É": 171,
      "Ê": 172,
      "Ë": 173,
      "Ì": 174,
      "Í": 175,
      "Î": 176,
      "Ï": 177,
      "Ð": 178,
      "Ñ": 179,
      "Ò": 180,
      "Ó": 181,
      "Ô": 182,
      "Õ": 183,
      "Ö": 184,
      "×": 185,
      "Ø": 186,
      "Ù": 187,
      "Ú": 188,
      "Û": 189,
      "Ü": 190,
      "Ý": 191,
      "Þ": 192,
      "ß": 193,
      "à": 194,
      "á": 195,
      "â": 196,
      "ã": 197,
      "ä": 198,
      "å": 199,
      "æ": 200,
      "ç": 201,
      "è": 202,
      "é": 203,
      "ê": 204,
      "ë": 205,
      "ì": 206,
      "í": 207,
      "î": 208,
      "ï": 209,
      "ð": 210,
      "ñ": 211,
      "ò": 212,
      "ó": 213,
      "ô": 214,
      "õ": 215,
      "ö": 216,
      "÷": 217,
      "ø": 218,
      "ù": 219,
      "ú": 220,
      "û": 221,
      "ü": 222,
      "ý": 223,
      "þ": 224,
      "ÿ": 225,
      "Ā": 226,
      "ā": 227,
      "Ă": 228,
      "ă": 229,
      "Ą": 230,
      "ą": 231,
      "Ć": 232,
      "ć": 233,
      "Ĉ": 234,
      "ĉ": 235,
      "Ċ": 236,
      "ċ": 237,
      "Č": 238,
      "č": 239,
      "Ď": 240,
      "ď": 241,
      "Đ": 242,
      "đ": 243,
      "Ē": 244,
      "ē": 245,
      "ĕ": 246,
      "Ė": 247,
      "ė": 248,
      "Ę": 249,
      "ę": 250,
      "Ě": 251,
      "ě": 252,
      "ĝ": 253,
      "Ğ": 254,
      "ğ": 255,
      "Ġ": 256,
      "ġ": 257,
      "Ģ": 258,
      "ģ": 259,
      "ĥ": 260,
      "Ħ": 261,
      "ħ": 262,
      "ĩ": 263,
      "Ī": 264,
      "ī": 265,
      "ĭ": 266,
      "Į": 267,
      "į": 268,
      "İ": 269,
      "ı": 270,
      "Ĳ": 271,
      "ĵ": 272,
      "Ķ": 273,
      "ķ": 274,
      "ĸ": 275,
      "Ĺ": 276,
      "ĺ": 277,
      "Ļ": 278,
      "ļ": 279,
      "Ľ": 280,
      "ľ": 281,
      "Ŀ": 282,
      "Ł": 283,
      "ł": 284,
      "Ń": 285,
      "ń": 286,
      "Ņ": 287,
      "ņ": 288,
      "Ň": 289,
      "ň": 290,
      "ŋ": 291,
      "Ō": 292,
      "ō": 293,
      "ŏ": 294,
      "Ő": 295,
      "ő": 296,
      "Œ": 297,
      "œ": 298,
      "Ŕ": 299,
      "ŕ": 300,
      "Ř": 301,
      "ř": 302,
      "Ś": 303,
      "ś": 304,
      "Ŝ": 305,
      "ŝ": 306,
      "Ş": 307,
      "ş": 308,
      "Š": 309,
      "š": 310,
      "Ţ": 311,
      "ţ": 312,
      "Ť": 313,
      "ť": 314,
      "ũ": 315,
      "Ū": 316,
      "ū": 317,
      "ŭ": 318,
      "Ů": 319,
      "ů": 320,
      "Ű": 321,
      "ű": 322,
      "Ų": 323,
      "ų": 324,
      "ŵ": 325,
      "ŷ": 326,
      "Ÿ": 327,
      "Ź": 328,
      "ź": 329,
      "Ż": 330,
      "ż": 331,
      "Ž": 332,
      "ž": 333,
      "ſ": 334,
      "Ɔ": 335,
      "Ƒ": 336,
      "ƒ": 337,
      "Ɠ": 338,
      "Ɩ": 339,
      "Ƙ": 340,
      "ƛ": 341,
      "Ɲ": 342,
      "Ơ": 343,
      "ơ": 344,
      "Ʀ": 345,
      "Ƭ": 346,
      "ư": 347,
      "ǎ": 348,
      "ǐ": 349,
      "ǒ": 350,
      "ǔ": 351,
      "ǘ": 352,
      "ǜ": 353,
      "ǝ": 354,
      "ǟ": 355,
      "ǣ": 356,
      "ǫ": 357,
      "Ǵ": 358,
      "ǵ": 359,
      "Ǻ": 360,
      "ȃ": 361,
      "ș": 362,
      "ț": 363,
      "Ȣ": 364,
      "Ȥ": 365,
      "Ȼ": 366,
      "ɐ": 367,
      "ɑ": 368,
      "ɒ": 369,
      "ɔ": 370,
      "ɕ": 371,
      "ə": 372,
      "ɚ": 373,
      "ɛ": 374,
      "ɜ": 375,
      "ɡ": 376,
      "ɢ": 377,
      "ɣ": 378,
      "ɤ": 379,
      "ɨ": 380,
      "ɪ": 381,
      "ɫ": 382,
      "ɬ": 383,
      "ɯ": 384,
      "ɲ": 385,
      "ɴ": 386,
      "ɵ": 387,
      "ɹ": 388,
      "ɾ": 389,
      "ʀ": 390,
      "ʁ": 391,
      "ʃ": 392,
      "ʊ": 393,
      "ʋ": 394,
      "ʌ": 395,
      "ʎ": 396,
      "ʐ": 397,
      "ʒ": 398,
      "ʔ": 399,
      "ʚ": 400,
      "ʤ": 401,
      "ʦ": 402,
      "ʰ": 403,
      "ʲ": 404,
      "ʺ": 405,
      "ʻ": 406,
      "ʼ": 407,
      "ʾ": 408,
      "ʿ": 409,
      "ˁ": 410,
      "ˆ": 411,
      "ˇ": 412,
      "ˈ": 413,
      "ˌ": 414,
      "ː": 415,
      "ˑ": 416,
      "˘": 417,
      "˙": 418,
      "˚": 419,
      "˛": 420,
      "˜": 421,
      "˝": 422,
      "ˡ": 423,
      "ˤ": 424,
      "̀": 425,
      "́": 426,
      "̂": 427,
      "̃": 428,
      "̄": 429,
      "̆": 430,
      "̇": 431,
      "̈": 432,
      "̍": 433,
      "̡": 434,
      "̣": 435,
      "̤": 436,
      "̧": 437,
      "̯": 438,
      "̱": 439,
      "̶": 440,
      "͘": 441,
      "͡": 442,
      ";": 443,
      "΄": 444,
      "Ά": 445,
      "Έ": 446,
      "Ί": 447,
      "Ό": 448,
      "Ώ": 449,
      "ΐ": 450,
      "Α": 451,
      "Β": 452,
      "Γ": 453,
      "Δ": 454,
      "Ε": 455,
      "Ζ": 456,
      "Η": 457,
      "Θ": 458,
      "Ι": 459,
      "Κ": 460,
      "Λ": 461,
      "Μ": 462,
      "Ν": 463,
      "Ο": 464,
      "Π": 465,
      "Ρ": 466,
      "Σ": 467,
      "Τ": 468,
      "Υ": 469,
      "Φ": 470,
      "Χ": 471,
      "Ω": 472,
      "ά": 473,
      "έ": 474,
      "ή": 475,
      "ί": 476,
      "α": 477,
      "β": 478,
      "γ": 479,
      "δ": 480,
      "ε": 481,
      "ζ": 482,
      "η": 483,
      "θ": 484,
      "ι": 485,
      "κ": 486,
      "λ": 487,
      "μ": 488,
      "ν": 489,
      "ξ": 490,
      "ο": 491,
      "π": 492,
      "ρ": 493,
      "ς": 494,
      "σ": 495,
      "τ": 496,
      "υ": 497,
      "φ": 498,
      "χ": 499,
      "ψ": 500,
      "ω": 501,
      "ϊ": 502,
      "ϋ": 503,
      "ό": 504,
      "ύ": 505,
      "ώ": 506,
      "Ё": 507,
      "Ђ": 508,
      "Ѓ": 509,
      "Є": 510,
      "Ѕ": 511,
      "І": 512,
      "Ї": 513,
      "Ј": 514,
      "Љ": 515,
      "Њ": 516,
      "Ћ": 517,
      "Ќ": 518,
      "Ў": 519,
      "Џ": 520,
      "А": 521,
      "Б": 522,
      "В": 523,
      "Г": 524,
      "Д": 525,
      "Е": 526,
      "Ж": 527,
      "З": 528,
      "И": 529,
      "Й": 530,
      "К": 531,
      "Л": 532,
      "М": 533,
      "Н": 534,
      "О": 535,
      "П": 536,
      "Р": 537,
      "С": 538,
      "Т": 539,
      "У": 540,
      "Ф": 541,
      "Х": 542,
      "Ц": 543,
      "Ч": 544,
      "Ш": 545,
      "Щ": 546,
      "Ъ": 547,
      "Ы": 548,
      "Ь": 549,
      "Э": 550,
      "Ю": 551,
      "Я": 552,
      "а": 553,
      "б": 554,
      "в": 555,
      "г": 556,
      "д": 557,
      "е": 558,
      "ж": 559,
      "з": 560,
      "и": 561,
      "й": 562,
      "к": 563,
      "л": 564,
      "м": 565,
      "н": 566,
      "о": 567,
      "п": 568,
      "р": 569,
      "с": 570,
      "т": 571,
      "у": 572,
      "ф": 573,
      "х": 574,
      "ц": 575,
      "ч": 576,
      "ш": 577,
      "щ": 578,
      "ъ": 579,
      "ы": 580,
      "ь": 581,
      "э": 582,
      "ю": 583,
      "я": 584,
      "ё": 585,
      "ђ": 586,
      "ѓ": 587,
      "є": 588,
      "ѕ": 589,
      "і": 590,
      "ї": 591,
      "ј": 592,
      "љ": 593,
      "њ": 594,
      "ћ": 595,
      "ќ": 596,
      "ў": 597,
      "џ": 598,
      "Ѳ": 599,
      "ѳ": 600,
      "Ґ": 601,
      "ґ": 602,
      "ғ": 603,
      "ҙ": 604,
      "қ": 605,
      "Ҡ": 606,
      "ҡ": 607,
      "ң": 608,
      "ү": 609,
      "ұ": 610,
      "Ҳ": 611,
      "ҳ": 612,
      "һ": 613,
      "ә": 614,
      "ө": 615,
      "ӳ": 616,
      "ְ": 617,
      "ֲ": 618,
      "ֳ": 619,
      "ִ": 620,
      "ֵ": 621,
      "ֶ": 622,
      "ַ": 623,
      "ָ": 624,
      "ֹ": 625,
      "ּ": 626,
      "ֿ": 627,
      "ׁ": 628,
      "א": 629,
      "ב": 630,
      "ג": 631,
      "ד": 632,
      "ה": 633,
      "ו": 634,
      "ז": 635,
      "ח": 636,
      "ט": 637,
      "י": 638,
      "כ": 639,
      "ל": 640,
      "ם": 641,
      "מ": 642,
      "ן": 643,
      "נ": 644,
      "ס": 645,
      "ע": 646,
      "פ": 647,
      "ץ": 648,
      "צ": 649,
      "ק": 650,
      "ר": 651,
      "ש": 652,
      "ת": 653,
      "،": 654,
      "ؒ": 655,
      "؛": 656,
      "ء": 657,
      "آ": 658,
      "أ": 659,
      "ؤ": 660,
      "إ": 661,
      "ئ": 662,
      "ا": 663,
      "ب": 664,
      "ة": 665,
      "ت": 666,
      "ث": 667,
      "ج": 668,
      "ح": 669,
      "خ": 670,
      "د": 671,
      "ذ": 672,
      "ر": 673,
      "ز": 674,
      "س": 675,
      "ش": 676,
      "ص": 677,
      "ض": 678,
      "ط": 679,
      "ظ": 680,
      "ع": 681,
      "غ": 682,
      "ـ": 683,
      "ف": 684,
      "ق": 685,
      "ك": 686,
      "ل": 687,
      "م": 688,
      "ن": 689,
      "ه": 690,
      "و": 691,
      "ى": 692,
      "ي": 693,
      "ً": 694,
      "ٌ": 695,
      "ٍ": 696,
      "َ": 697,
      "ُ": 698,
      "ِ": 699,
      "ّ": 700,
      "ْ": 701,
      "ٲ": 702,
      "ٹ": 703,
      "ټ": 704,
      "پ": 705,
      "ځ": 706,
      "چ": 707,
      "ڠ": 708,
      "ڤ": 709,
      "ک": 710,
      "ڬ": 711,
      "ڭ": 712,
      "گ": 713,
      "ھ": 714,
      "ہ": 715,
      "ۂ": 716,
      "ۆ": 717,
      "ۇ": 718,
      "ی": 719,
      "ې": 720,
      "ە": 721,
      "۞": 722,
      "۩": 723,
      "۰": 724,
      "۱": 725,
      "۲": 726,
      "۳": 727,
      "۴": 728,
      "۵": 729,
      "۶": 730,
      "۷": 731,
      "۸": 732,
      "۹": 733,
      "ރ": 734,
      "ކ": 735,
      "އ": 736,
      "މ": 737,
      "ާ": 738,
      "ި": 739,
      "ެ": 740,
      "ߖ": 741,
      "ߧ": 742,
      "߮": 743,
      "ं": 744,
      "अ": 745,
      "आ": 746,
      "ई": 747,
      "उ": 748,
      "क": 749,
      "ग": 750,
      "च": 751,
      "छ": 752,
      "ज": 753,
      "ञ": 754,
      "ट": 755,
      "ड": 756,
      "ढ": 757,
      "ण": 758,
      "त": 759,
      "थ": 760,
      "द": 761,
      "ध": 762,
      "न": 763,
      "प": 764,
      "ब": 765,
      "भ": 766,
      "म": 767,
      "य": 768,
      "र": 769,
      "ल": 770,
      "व": 771,
      "श": 772,
      "ष": 773,
      "स": 774,
      "ह": 775,
      "़": 776,
      "ा": 777,
      "ि": 778,
      "ी": 779,
      "ु": 780,
      "ृ": 781,
      "े": 782,
      "ॉ": 783,
      "ो": 784,
      "्": 785,
      "ॐ": 786,
      "ॡ": 787,
      "०": 788,
      "१": 789,
      "२": 790,
      "३": 791,
      "५": 792,
      "९": 793,
      "ং": 794,
      "আ": 795,
      "ই": 796,
      "এ": 797,
      "ক": 798,
      "গ": 799,
      "ঙ": 800,
      "চ": 801,
      "ট": 802,
      "ত": 803,
      "ন": 804,
      "প": 805,
      "ব": 806,
      "ম": 807,
      "য": 808,
      "র": 809,
      "ল": 810,
      "শ": 811,
      "ষ": 812,
      "হ": 813,
      "়": 814,
      "া": 815,
      "ি": 816,
      "ু": 817,
      "ো": 818,
      "্": 819,
      "ৰ": 820,
      "ਗ": 821,
      "ਚ": 822,
      "ਡ": 823,
      "ਹ": 824,
      "ੀ": 825,
      "੍": 826,
      "ੜ": 827,
      "ੰ": 828,
      "ં": 829,
      "અ": 830,
      "ક": 831,
      "જ": 832,
      "ત": 833,
      "મ": 834,
      "ય": 835,
      "ર": 836,
      "સ": 837,
      "ા": 838,
      "િ": 839,
      "ુ": 840,
      "ે": 841,
      "્": 842,
      "૦": 843,
      "૧": 844,
      "૨": 845,
      "க": 846,
      "ங": 847,
      "ச": 848,
      "ட": 849,
      "த": 850,
      "ன": 851,
      "ப": 852,
      "ம": 853,
      "ய": 854,
      "ர": 855,
      "ல": 856,
      "வ": 857,
      "ஷ": 858,
      "ா": 859,
      "ி": 860,
      "ு": 861,
      "ூ": 862,
      "ெ": 863,
      "ை": 864,
      "ோ": 865,
      "்": 866,
      "ం": 867,
      "ఆ": 868,
      "క": 869,
      "గ": 870,
      "జ": 871,
      "డ": 872,
      "ద": 873,
      "ధ": 874,
      "న": 875,
      "ప": 876,
      "ర": 877,
      "శ": 878,
      "ా": 879,
      "ు": 880,
      "ె": 881,
      "ే": 882,
      "ొ": 883,
      "్": 884,
      "ౕ": 885,
      "ಐ": 886,
      "ಯ": 887,
      "ರ": 888,
      "ವ": 889,
      "ಶ": 890,
      "ಾ": 891,
      "ೆ": 892,
      "ೈ": 893,
      "್": 894,
      "ೖ": 895,
      "೦": 896,
      "೧": 897,
      "೨": 898,
      "೩": 899,
      "೫": 900,
      "೬": 901,
      "೮": 902,
      "೯": 903,
      "അ": 904,
      "എ": 905,
      "ക": 906,
      "ത": 907,
      "ദ": 908,
      "ന": 909,
      "പ": 910,
      "മ": 911,
      "യ": 912,
      "ല": 913,
      "വ": 914,
      "ഷ": 915,
      "സ": 916,
      "ി": 917,
      "ീ": 918,
      "ു": 919,
      "ോ": 920,
      "്": 921,
      "න": 922,
      "ම": 923,
      "ර": 924,
      "ව": 925,
      "හ": 926,
      "ු": 927,
      "ก": 928,
      "ข": 929,
      "ค": 930,
      "ฆ": 931,
      "ง": 932,
      "จ": 933,
      "ฉ": 934,
      "ช": 935,
      "ซ": 936,
      "ญ": 937,
      "ฎ": 938,
      "ฏ": 939,
      "ฐ": 940,
      "ฑ": 941,
      "ฒ": 942,
      "ณ": 943,
      "ด": 944,
      "ต": 945,
      "ถ": 946,
      "ท": 947,
      "ธ": 948,
      "น": 949,
      "บ": 950,
      "ป": 951,
      "ผ": 952,
      "ฝ": 953,
      "พ": 954,
      "ฟ": 955,
      "ภ": 956,
      "ม": 957,
      "ย": 958,
      "ร": 959,
      "ฤ": 960,
      "ล": 961,
      "ว": 962,
      "ศ": 963,
      "ษ": 964,
      "ส": 965,
      "ห": 966,
      "อ": 967,
      "ฮ": 968,
      "ฯ": 969,
      "ะ": 970,
      "ั": 971,
      "า": 972,
      "ำ": 973,
      "ิ": 974,
      "ี": 975,
      "ึ": 976,
      "ื": 977,
      "ุ": 978,
      "ู": 979,
      "฿": 980,
      "เ": 981,
      "แ": 982,
      "โ": 983,
      "ใ": 984,
      "ไ": 985,
      "ๆ": 986,
      "็": 987,
      "่": 988,
      "้": 989,
      "๊": 990,
      "๋": 991,
      "์": 992,
      "๑": 993,
      "ຂ": 994,
      "ຄ": 995,
      "ງ": 996,
      "ຈ": 997,
      "ດ": 998,
      "ຖ": 999,
      "ນ": 1000,
      "ບ": 1001,
      "ມ": 1002,
      "ລ": 1003,
      "ວ": 1004,
      "ັ": 1005,
      "າ": 1006,
      "ຸ": 1007,
      "ົ": 1008,
      "ຽ": 1009,
      "ເ": 1010,
      "້": 1011,
      "ໜ": 1012,
      "་": 1013,
      "ཏ": 1014,
      "ད": 1015,
      "ན": 1016,
      "བ": 1017,
      "མ": 1018,
      "ཚ": 1019,
      "འ": 1020,
      "ལ": 1021,
      "ས": 1022,
      "ཱ": 1023,
      "ི": 1024,
      "ོ": 1025,
      "ྔ": 1026,
      "ླ": 1027,
      "န": 1028,
      "ရ": 1029,
      "ဝ": 1030,
      "သ": 1031,
      "ဟ": 1032,
      "ေ": 1033,
      "္": 1034,
      "ა": 1035,
      "ბ": 1036,
      "გ": 1037,
      "დ": 1038,
      "ე": 1039,
      "ვ": 1040,
      "ზ": 1041,
      "თ": 1042,
      "ი": 1043,
      "კ": 1044,
      "ლ": 1045,
      "მ": 1046,
      "ნ": 1047,
      "ო": 1048,
      "პ": 1049,
      "რ": 1050,
      "ს": 1051,
      "ტ": 1052,
      "უ": 1053,
      "ქ": 1054,
      "ღ": 1055,
      "შ": 1056,
      "ც": 1057,
      "ძ": 1058,
      "წ": 1059,
      "ხ": 1060,
      "ჯ": 1061,
      "ህ": 1062,
      "ሊ": 1063,
      "ል": 1064,
      "ሓ": 1065,
      "ሕ": 1066,
      "መ": 1067,
      "ሙ": 1068,
      "ሜ": 1069,
      "ም": 1070,
      "ሥ": 1071,
      "ረ": 1072,
      "ሪ": 1073,
      "ራ": 1074,
      "ር": 1075,
      "ሰ": 1076,
      "ሴ": 1077,
      "ስ": 1078,
      "ሻ": 1079,
      "ሽ": 1080,
      "ቀ": 1081,
      "ቐ": 1082,
      "በ": 1083,
      "ቢ": 1084,
      "ባ": 1085,
      "ተ": 1086,
      "ት": 1087,
      "ቶ": 1088,
      "ነ": 1089,
      "ን": 1090,
      "አ": 1091,
      "ኣ": 1092,
      "ኤ": 1093,
      "እ": 1094,
      "ኦ": 1095,
      "ካ": 1096,
      "ክ": 1097,
      "ዋ": 1098,
      "ው": 1099,
      "ዓ": 1100,
      "ዕ": 1101,
      "የ": 1102,
      "ይ": 1103,
      "ደ": 1104,
      "ዲ": 1105,
      "ድ": 1106,
      "ገ": 1107,
      "ጋ": 1108,
      "ጨ": 1109,
      "ጽ": 1110,
      "ፅ": 1111,
      "ፈ": 1112,
      "ፍ": 1113,
      "፣": 1114,
      "Ꭰ": 1115,
      "Ꭲ": 1116,
      "Ꮊ": 1117,
      "ᐃ": 1118,
      "ᐊ": 1119,
      "ᑦ": 1120,
      "ᑲ": 1121,
      "ᒃ": 1122,
      "ᒥ": 1123,
      "ᓄ": 1124,
      "ᓕ": 1125,
      "ដ": 1126,
      "ឋ": 1127,
      "រ": 1128,
      "ស": 1129,
      "ហ": 1130,
      "្": 1131,
      "ḇ": 1132,
      "ḍ": 1133,
      "ḏ": 1134,
      "ḗ": 1135,
      "Ḥ": 1136,
      "ḥ": 1137,
      "Ḫ": 1138,
      "ḫ": 1139,
      "ḳ": 1140,
      "ḷ": 1141,
      "ḿ": 1142,
      "ṃ": 1143,
      "ṅ": 1144,
      "ṇ": 1145,
      "ṉ": 1146,
      "ṛ": 1147,
      "ṣ": 1148,
      "Ṭ": 1149,
      "ṭ": 1150,
      "Ṯ": 1151,
      "ṳ": 1152,
      "ẋ": 1153,
      "ạ": 1154,
      "ả": 1155,
      "ấ": 1156,
      "ầ": 1157,
      "ẩ": 1158,
      "ậ": 1159,
      "ắ": 1160,
      "ằ": 1161,
      "Ẳ": 1162,
      "ẵ": 1163,
      "ặ": 1164,
      "ẻ": 1165,
      "ẽ": 1166,
      "ế": 1167,
      "ề": 1168,
      "ể": 1169,
      "ễ": 1170,
      "ệ": 1171,
      "ỉ": 1172,
      "ị": 1173,
      "Ọ": 1174,
      "ọ": 1175,
      "ỏ": 1176,
      "ố": 1177,
      "ồ": 1178,
      "ổ": 1179,
      "ộ": 1180,
      "ớ": 1181,
      "ờ": 1182,
      "ở": 1183,
      "ỡ": 1184,
      "ợ": 1185,
      "ụ": 1186,
      "ủ": 1187,
      "ứ": 1188,
      "ừ": 1189,
      "ử": 1190,
      "ữ": 1191,
      "ự": 1192,
      "ỳ": 1193,
      "ỹ": 1194,
      "ἀ": 1195,
      "ἁ": 1196,
      "ἄ": 1197,
      "ἅ": 1198,
      "Ἀ": 1199,
      "ἐ": 1200,
      "ἑ": 1201,
      "ἔ": 1202,
      "Ἔ": 1203,
      "ἠ": 1204,
      "ἡ": 1205,
      "ἦ": 1206,
      "Ἡ": 1207,
      "Ἥ": 1208,
      "ἰ": 1209,
      "Ἱ": 1210,
      "ὁ": 1211,
      "ὄ": 1212,
      "Ὑ": 1213,
      "ά": 1214,
      "ὶ": 1215,
      "ὺ": 1216,
      "ῆ": 1217,
      "ῑ": 1218,
      "ῖ": 1219,
      "ῥ": 1220,
      "ῦ": 1221,
      "​": 1222,
      "‌": 1223,
      "‍": 1224,
      "‎": 1225,
      "‏": 1226,
      "‐": 1227,
      "‑": 1228,
      "‒": 1229,
      "–": 1230,
      "—": 1231,
      "―": 1232,
      "‖": 1233,
      "‘": 1234,
      "’": 1235,
      "‚": 1236,
      "‛": 1237,
      "“": 1238,
      "‟": 1239,
      "†": 1240,
      "‡": 1241,
      "•": 1242,
      "…": 1243,
      "‪": 1244,
      "‬": 1245,
      "‭": 1246,
      "‰": 1247,
      "′": 1248,
      "″": 1249,
      "‶": 1250,
      "‹": 1251,
      "›": 1252,
      "※": 1253,
      "‼": 1254,
      "‽": 1255,
      "⁄": 1256,
      "⁴": 1257,
      "ⁿ": 1258,
      "₁": 1259,
      "₂": 1260,
      "₠": 1261,
      "₣": 1262,
      "₤": 1263,
      "₩": 1264,
      "₪": 1265,
      "€": 1266,
      "₴": 1267,
      "₵": 1268,
      "⃛": 1269,
      "℃": 1270,
      "ℓ": 1271,
      "℔": 1272,
      "№": 1273,
      "™": 1274,
      "Ω": 1275,
      "℮": 1276,
      "⅓": 1277,
      "⅔": 1278,
      "⅛": 1279,
      "⅞": 1280,
      "Ⅱ": 1281,
      "Ⅲ": 1282,
      "←": 1283,
      "↑": 1284,
      "→": 1285,
      "↓": 1286,
      "↔": 1287,
      "↧": 1288,
      "⇒": 1289,
      "⇔": 1290,
      "⇗": 1291,
      "⇢": 1292,
      "∀": 1293,
      "∃": 1294,
      "∈": 1295,
      "∑": 1296,
      "−": 1297,
      "∙": 1298,
      "√": 1299,
      "∞": 1300,
      "∫": 1301,
      "∴": 1302,
      "∶": 1303,
      "∼": 1304,
      "≈": 1305,
      "≠": 1306,
      "≡": 1307,
      "≤": 1308,
      "≥": 1309,
      "≪": 1310,
      "≫": 1311,
      "⋅": 1312,
      "⌃": 1313,
      "⌘": 1314,
      "①": 1315,
      "②": 1316,
      "③": 1317,
      "─": 1318,
      "│": 1319,
      "┌": 1320,
      "┐": 1321,
      "└": 1322,
      "┘": 1323,
      "┬": 1324,
      "┴": 1325,
      "╚": 1326,
      "╞": 1327,
      "╩": 1328,
      "█": 1329,
      "░": 1330,
      "▒": 1331,
      "■": 1332,
      "□": 1333,
      "▪": 1334,
      "▲": 1335,
      "△": 1336,
      "▸": 1337,
      "►": 1338,
      "▼": 1339,
      "◆": 1340,
      "◇": 1341,
      "◈": 1342,
      "◊": 1343,
      "○": 1344,
      "◎": 1345,
      "●": 1346,
      "◙": 1347,
      "◦": 1348,
      "★": 1349,
      "☆": 1350,
      "☎": 1351,
      "☏": 1352,
      "☑": 1353,
      "☯": 1354,
      "☺": 1355,
      "☻": 1356,
      "☼": 1357,
      "♀": 1358,
      "♂": 1359,
      "♠": 1360,
      "♣": 1361,
      "♥": 1362,
      "♦": 1363,
      "♪": 1364,
      "♫": 1365,
      "✿": 1366,
      "➔": 1367,
      "➚": 1368,
      "➟": 1369,
      "➲": 1370,
      "Ⰶ": 1371,
      "ⲉ": 1372,
      "ⲟ": 1373,
      "Ⲡ": 1374,
      "ⲣ": 1375,
      "ⲩ": 1376,
      "、": 1377,
      "。": 1378,
      "々": 1379,
      "《": 1380,
      "》": 1381,
      "「": 1382,
      "」": 1383,
      "『": 1384,
      "』": 1385,
      "【": 1386,
      "】": 1387,
      "〔": 1388,
      "〕": 1389,
      "〜": 1390,
      "ぁ": 1391,
      "あ": 1392,
      "ぃ": 1393,
      "い": 1394,
      "う": 1395,
      "ぇ": 1396,
      "え": 1397,
      "お": 1398,
      "か": 1399,
      "が": 1400,
      "き": 1401,
      "ぎ": 1402,
      "く": 1403,
      "ぐ": 1404,
      "け": 1405,
      "げ": 1406,
      "こ": 1407,
      "ご": 1408,
      "さ": 1409,
      "ざ": 1410,
      "し": 1411,
      "じ": 1412,
      "す": 1413,
      "ず": 1414,
      "せ": 1415,
      "ぜ": 1416,
      "そ": 1417,
      "ぞ": 1418,
      "た": 1419,
      "だ": 1420,
      "ち": 1421,
      "ぢ": 1422,
      "っ": 1423,
      "つ": 1424,
      "づ": 1425,
      "て": 1426,
      "で": 1427,
      "と": 1428,
      "ど": 1429,
      "な": 1430,
      "に": 1431,
      "ぬ": 1432,
      "ね": 1433,
      "の": 1434,
      "は": 1435,
      "ば": 1436,
      "ひ": 1437,
      "び": 1438,
      "ふ": 1439,
      "ぶ": 1440,
      "ぷ": 1441,
      "へ": 1442,
      "べ": 1443,
      "ほ": 1444,
      "ぼ": 1445,
      "ま": 1446,
      "み": 1447,
      "む": 1448,
      "め": 1449,
      "も": 1450,
      "ゃ": 1451,
      "や": 1452,
      "ゅ": 1453,
      "ゆ": 1454,
      "ょ": 1455,
      "よ": 1456,
      "ら": 1457,
      "り": 1458,
      "る": 1459,
      "れ": 1460,
      "ろ": 1461,
      "わ": 1462,
      "ゐ": 1463,
      "ゑ": 1464,
      "を": 1465,
      "ん": 1466,
      "ゔ": 1467,
      "゛": 1468,
      "゜": 1469,
      "ァ": 1470,
      "ア": 1471,
      "ィ": 1472,
      "イ": 1473,
      "ゥ": 1474,
      "ウ": 1475,
      "ェ": 1476,
      "エ": 1477,
      "ォ": 1478,
      "オ": 1479,
      "カ": 1480,
      "ガ": 1481,
      "キ": 1482,
      "ギ": 1483,
      "ク": 1484,
      "グ": 1485,
      "ケ": 1486,
      "ゲ": 1487,
      "コ": 1488,
      "ゴ": 1489,
      "サ": 1490,
      "ザ": 1491,
      "シ": 1492,
      "ジ": 1493,
      "ス": 1494,
      "ズ": 1495,
      "セ": 1496,
      "ゼ": 1497,
      "ソ": 1498,
      "ゾ": 1499,
      "タ": 1500,
      "ダ": 1501,
      "チ": 1502,
      "ッ": 1503,
      "ツ": 1504,
      "テ": 1505,
      "デ": 1506,
      "ト": 1507,
      "ド": 1508,
      "ナ": 1509,
      "ニ": 1510,
      "ヌ": 1511,
      "ネ": 1512,
      "ノ": 1513,
      "ハ": 1514,
      "バ": 1515,
      "パ": 1516,
      "ヒ": 1517,
      "ビ": 1518,
      "ピ": 1519,
      "フ": 1520,
      "ブ": 1521,
      "プ": 1522,
      "ヘ": 1523,
      "ベ": 1524,
      "ペ": 1525,
      "ホ": 1526,
      "ボ": 1527,
      "ポ": 1528,
      "マ": 1529,
      "ミ": 1530,
      "ム": 1531,
      "メ": 1532,
      "モ": 1533,
      "ャ": 1534,
      "ヤ": 1535,
      "ュ": 1536,
      "ユ": 1537,
      "ョ": 1538,
      "ヨ": 1539,
      "ラ": 1540,
      "リ": 1541,
      "ル": 1542,
      "レ": 1543,
      "ロ": 1544,
      "ワ": 1545,
      "ン": 1546,
      "ヴ": 1547,
      "・": 1548,
      "ー": 1549,
      "ㄅ": 1550,
      "ㄆ": 1551,
      "ㄇ": 1552,
      "ㄈ": 1553,
      "ㄤ": 1554,
      "ㄧ": 1555,
      "ㅓ": 1556,
      "ㅔ": 1557,
      "ㅕ": 1558,
      "ㅖ": 1559,
      "ㅡ": 1560,
      "ㅣ": 1561,
      "㎡": 1562,
      "䟩": 1563,
      "一": 1564,
      "七": 1565,
      "万": 1566,
      "丈": 1567,
      "三": 1568,
      "上": 1569,
      "下": 1570,
      "不": 1571,
      "与": 1572,
      "专": 1573,
      "世": 1574,
      "丘": 1575,
      "业": 1576,
      "东": 1577,
      "两": 1578,
      "严": 1579,
      "丨": 1580,
      "个": 1581,
      "中": 1582,
      "丰": 1583,
      "临": 1584,
      "丸": 1585,
      "丹": 1586,
      "为": 1587,
      "主": 1588,
      "丼": 1589,
      "丽": 1590,
      "举": 1591,
      "久": 1592,
      "么": 1593,
      "义": 1594,
      "之": 1595,
      "乌": 1596,
      "乎": 1597,
      "乏": 1598,
      "乐": 1599,
      "乗": 1600,
      "乘": 1601,
      "乙": 1602,
      "九": 1603,
      "也": 1604,
      "习": 1605,
      "乡": 1606,
      "书": 1607,
      "买": 1608,
      "乱": 1609,
      "乾": 1610,
      "了": 1611,
      "争": 1612,
      "事": 1613,
      "二": 1614,
      "于": 1615,
      "云": 1616,
      "互": 1617,
      "五": 1618,
      "井": 1619,
      "亚": 1620,
      "些": 1621,
      "亜": 1622,
      "亞": 1623,
      "交": 1624,
      "产": 1625,
      "亨": 1626,
      "京": 1627,
      "人": 1628,
      "亿": 1629,
      "什": 1630,
      "仁": 1631,
      "仅": 1632,
      "今": 1633,
      "介": 1634,
      "仍": 1635,
      "从": 1636,
      "他": 1637,
      "付": 1638,
      "仙": 1639,
      "仝": 1640,
      "代": 1641,
      "以": 1642,
      "仪": 1643,
      "们": 1644,
      "仮": 1645,
      "仲": 1646,
      "件": 1647,
      "价": 1648,
      "任": 1649,
      "伊": 1650,
      "伎": 1651,
      "伏": 1652,
      "伐": 1653,
      "休": 1654,
      "众": 1655,
      "优": 1656,
      "会": 1657,
      "伝": 1658,
      "伟": 1659,
      "传": 1660,
      "伦": 1661,
      "伯": 1662,
      "估": 1663,
      "伴": 1664,
      "伸": 1665,
      "似": 1666,
      "但": 1667,
      "位": 1668,
      "低": 1669,
      "住": 1670,
      "佐": 1671,
      "佑": 1672,
      "体": 1673,
      "何": 1674,
      "佗": 1675,
      "余": 1676,
      "作": 1677,
      "你": 1678,
      "佰": 1679,
      "使": 1680,
      "例": 1681,
      "侍": 1682,
      "供": 1683,
      "依": 1684,
      "便": 1685,
      "俄": 1686,
      "俊": 1687,
      "保": 1688,
      "信": 1689,
      "修": 1690,
      "倉": 1691,
      "個": 1692,
      "倍": 1693,
      "倒": 1694,
      "候": 1695,
      "值": 1696,
      "假": 1697,
      "做": 1698,
      "健": 1699,
      "側": 1700,
      "備": 1701,
      "储": 1702,
      "傳": 1703,
      "傷": 1704,
      "働": 1705,
      "像": 1706,
      "僕": 1707,
      "儀": 1708,
      "儉": 1709,
      "元": 1710,
      "先": 1711,
      "光": 1712,
      "克": 1713,
      "免": 1714,
      "入": 1715,
      "內": 1716,
      "全": 1717,
      "兩": 1718,
      "八": 1719,
      "公": 1720,
      "六": 1721,
      "兰": 1722,
      "共": 1723,
      "关": 1724,
      "兴": 1725,
      "兵": 1726,
      "其": 1727,
      "具": 1728,
      "养": 1729,
      "兽": 1730,
      "内": 1731,
      "円": 1732,
      "冊": 1733,
      "册": 1734,
      "再": 1735,
      "写": 1736,
      "军": 1737,
      "农": 1738,
      "冤": 1739,
      "冰": 1740,
      "决": 1741,
      "况": 1742,
      "冷": 1743,
      "净": 1744,
      "凄": 1745,
      "准": 1746,
      "凉": 1747,
      "凍": 1748,
      "减": 1749,
      "几": 1750,
      "凶": 1751,
      "凸": 1752,
      "出": 1753,
      "函": 1754,
      "刀": 1755,
      "分": 1756,
      "切": 1757,
      "刑": 1758,
      "列": 1759,
      "刘": 1760,
      "则": 1761,
      "刚": 1762,
      "创": 1763,
      "判": 1764,
      "別": 1765,
      "刨": 1766,
      "利": 1767,
      "别": 1768,
      "到": 1769,
      "制": 1770,
      "刺": 1771,
      "則": 1772,
      "前": 1773,
      "剑": 1774,
      "剣": 1775,
      "剥": 1776,
      "剧": 1777,
      "剩": 1778,
      "副": 1779,
      "割": 1780,
      "創": 1781,
      "劇": 1782,
      "劉": 1783,
      "力": 1784,
      "功": 1785,
      "加": 1786,
      "务": 1787,
      "动": 1788,
      "助": 1789,
      "努": 1790,
      "劳": 1791,
      "势": 1792,
      "動": 1793,
      "勝": 1794,
      "勞": 1795,
      "勢": 1796,
      "勧": 1797,
      "勿": 1798,
      "包": 1799,
      "化": 1800,
      "北": 1801,
      "匠": 1802,
      "匡": 1803,
      "匹": 1804,
      "区": 1805,
      "医": 1806,
      "匿": 1807,
      "區": 1808,
      "十": 1809,
      "千": 1810,
      "升": 1811,
      "半": 1812,
      "卍": 1813,
      "华": 1814,
      "协": 1815,
      "卐": 1816,
      "卓": 1817,
      "单": 1818,
      "卖": 1819,
      "南": 1820,
      "博": 1821,
      "卡": 1822,
      "卦": 1823,
      "卫": 1824,
      "印": 1825,
      "危": 1826,
      "即": 1827,
      "却": 1828,
      "厂": 1829,
      "原": 1830,
      "去": 1831,
      "县": 1832,
      "参": 1833,
      "參": 1834,
      "及": 1835,
      "友": 1836,
      "双": 1837,
      "反": 1838,
      "发": 1839,
      "取": 1840,
      "受": 1841,
      "变": 1842,
      "叡": 1843,
      "口": 1844,
      "古": 1845,
      "另": 1846,
      "只": 1847,
      "叫": 1848,
      "召": 1849,
      "可": 1850,
      "台": 1851,
      "史": 1852,
      "右": 1853,
      "号": 1854,
      "司": 1855,
      "吃": 1856,
      "各": 1857,
      "合": 1858,
      "吉": 1859,
      "吊": 1860,
      "同": 1861,
      "名": 1862,
      "后": 1863,
      "向": 1864,
      "吗": 1865,
      "君": 1866,
      "否": 1867,
      "吧": 1868,
      "吨": 1869,
      "含": 1870,
      "听": 1871,
      "吳": 1872,
      "吴": 1873,
      "吸": 1874,
      "吹": 1875,
      "吾": 1876,
      "呀": 1877,
      "呂": 1878,
      "呆": 1879,
      "呉": 1880,
      "告": 1881,
      "呑": 1882,
      "员": 1883,
      "周": 1884,
      "味": 1885,
      "呼": 1886,
      "命": 1887,
      "咆": 1888,
      "和": 1889,
      "咬": 1890,
      "品": 1891,
      "哈": 1892,
      "响": 1893,
      "員": 1894,
      "哥": 1895,
      "哮": 1896,
      "哲": 1897,
      "唐": 1898,
      "售": 1899,
      "唸": 1900,
      "商": 1901,
      "問": 1902,
      "啤": 1903,
      "啦": 1904,
      "喀": 1905,
      "喂": 1906,
      "善": 1907,
      "喇": 1908,
      "喜": 1909,
      "喫": 1910,
      "嗣": 1911,
      "嘉": 1912,
      "嘛": 1913,
      "嘟": 1914,
      "噌": 1915,
      "噛": 1916,
      "器": 1917,
      "嚴": 1918,
      "四": 1919,
      "回": 1920,
      "因": 1921,
      "団": 1922,
      "囧": 1923,
      "园": 1924,
      "困": 1925,
      "固": 1926,
      "国": 1927,
      "图": 1928,
      "圆": 1929,
      "國": 1930,
      "圍": 1931,
      "圏": 1932,
      "園": 1933,
      "圓": 1934,
      "圖": 1935,
      "土": 1936,
      "在": 1937,
      "地": 1938,
      "圳": 1939,
      "场": 1940,
      "址": 1941,
      "坂": 1942,
      "均": 1943,
      "坊": 1944,
      "坐": 1945,
      "块": 1946,
      "坛": 1947,
      "坝": 1948,
      "坡": 1949,
      "坤": 1950,
      "坪": 1951,
      "型": 1952,
      "垣": 1953,
      "城": 1954,
      "埔": 1955,
      "域": 1956,
      "基": 1957,
      "堂": 1958,
      "堆": 1959,
      "堤": 1960,
      "堰": 1961,
      "報": 1962,
      "場": 1963,
      "塊": 1964,
      "塔": 1965,
      "塗": 1966,
      "塞": 1967,
      "塩": 1968,
      "塾": 1969,
      "増": 1970,
      "增": 1971,
      "墟": 1972,
      "墩": 1973,
      "壊": 1974,
      "士": 1975,
      "壮": 1976,
      "売": 1977,
      "壳": 1978,
      "壹": 1979,
      "壽": 1980,
      "处": 1981,
      "备": 1982,
      "変": 1983,
      "复": 1984,
      "夏": 1985,
      "夕": 1986,
      "外": 1987,
      "多": 1988,
      "夛": 1989,
      "夜": 1990,
      "够": 1991,
      "夢": 1992,
      "大": 1993,
      "天": 1994,
      "太": 1995,
      "夫": 1996,
      "央": 1997,
      "头": 1998,
      "夷": 1999,
      "夹": 2000,
      "奄": 2001,
      "奇": 2002,
      "奈": 2003,
      "奉": 2004,
      "套": 2005,
      "奘": 2006,
      "奚": 2007,
      "奥": 2008,
      "女": 2009,
      "奶": 2010,
      "奸": 2011,
      "好": 2012,
      "如": 2013,
      "妖": 2014,
      "妤": 2015,
      "妨": 2016,
      "妻": 2017,
      "姆": 2018,
      "始": 2019,
      "委": 2020,
      "姦": 2021,
      "威": 2022,
      "娃": 2023,
      "娄": 2024,
      "娜": 2025,
      "娣": 2026,
      "娥": 2027,
      "娱": 2028,
      "婁": 2029,
      "婦": 2030,
      "婷": 2031,
      "媛": 2032,
      "嫌": 2033,
      "子": 2034,
      "字": 2035,
      "存": 2036,
      "季": 2037,
      "学": 2038,
      "孴": 2039,
      "學": 2040,
      "宁": 2041,
      "它": 2042,
      "宇": 2043,
      "安": 2044,
      "宋": 2045,
      "完": 2046,
      "宏": 2047,
      "宗": 2048,
      "官": 2049,
      "定": 2050,
      "宜": 2051,
      "宝": 2052,
      "实": 2053,
      "実": 2054,
      "客": 2055,
      "宣": 2056,
      "室": 2057,
      "宫": 2058,
      "宮": 2059,
      "宰": 2060,
      "家": 2061,
      "容": 2062,
      "宿": 2063,
      "寄": 2064,
      "密": 2065,
      "富": 2066,
      "寤": 2067,
      "實": 2068,
      "寧": 2069,
      "寨": 2070,
      "寳": 2071,
      "寶": 2072,
      "寸": 2073,
      "对": 2074,
      "寺": 2075,
      "寻": 2076,
      "寿": 2077,
      "専": 2078,
      "将": 2079,
      "小": 2080,
      "少": 2081,
      "尔": 2082,
      "尘": 2083,
      "就": 2084,
      "尽": 2085,
      "尾": 2086,
      "尿": 2087,
      "局": 2088,
      "屄": 2089,
      "居": 2090,
      "屈": 2091,
      "届": 2092,
      "屋": 2093,
      "屏": 2094,
      "展": 2095,
      "属": 2096,
      "屯": 2097,
      "山": 2098,
      "屿": 2099,
      "岐": 2100,
      "岗": 2101,
      "岛": 2102,
      "岡": 2103,
      "岩": 2104,
      "岭": 2105,
      "岳": 2106,
      "岷": 2107,
      "岸": 2108,
      "島": 2109,
      "峻": 2110,
      "峽": 2111,
      "崎": 2112,
      "崔": 2113,
      "崖": 2114,
      "崩": 2115,
      "嵥": 2116,
      "嶺": 2117,
      "嶼": 2118,
      "川": 2119,
      "州": 2120,
      "工": 2121,
      "左": 2122,
      "巧": 2123,
      "巨": 2124,
      "差": 2125,
      "己": 2126,
      "已": 2127,
      "巴": 2128,
      "巻": 2129,
      "市": 2130,
      "布": 2131,
      "师": 2132,
      "希": 2133,
      "帝": 2134,
      "帥": 2135,
      "带": 2136,
      "師": 2137,
      "席": 2138,
      "帯": 2139,
      "常": 2140,
      "幌": 2141,
      "幡": 2142,
      "幣": 2143,
      "干": 2144,
      "平": 2145,
      "年": 2146,
      "并": 2147,
      "幸": 2148,
      "幹": 2149,
      "幾": 2150,
      "广": 2151,
      "庁": 2152,
      "広": 2153,
      "庄": 2154,
      "庆": 2155,
      "序": 2156,
      "库": 2157,
      "应": 2158,
      "底": 2159,
      "店": 2160,
      "庚": 2161,
      "府": 2162,
      "废": 2163,
      "度": 2164,
      "座": 2165,
      "庫": 2166,
      "庭": 2167,
      "康": 2168,
      "廃": 2169,
      "廣": 2170,
      "建": 2171,
      "开": 2172,
      "弁": 2173,
      "异": 2174,
      "弄": 2175,
      "式": 2176,
      "弓": 2177,
      "弔": 2178,
      "引": 2179,
      "张": 2180,
      "弦": 2181,
      "張": 2182,
      "强": 2183,
      "当": 2184,
      "形": 2185,
      "彩": 2186,
      "彭": 2187,
      "彰": 2188,
      "影": 2189,
      "役": 2190,
      "彻": 2191,
      "彼": 2192,
      "征": 2193,
      "待": 2194,
      "很": 2195,
      "律": 2196,
      "後": 2197,
      "徐": 2198,
      "徒": 2199,
      "得": 2200,
      "御": 2201,
      "復": 2202,
      "循": 2203,
      "微": 2204,
      "徳": 2205,
      "德": 2206,
      "徹": 2207,
      "徽": 2208,
      "心": 2209,
      "必": 2210,
      "忆": 2211,
      "忍": 2212,
      "志": 2213,
      "忘": 2214,
      "応": 2215,
      "忠": 2216,
      "快": 2217,
      "念": 2218,
      "忻": 2219,
      "忽": 2220,
      "态": 2221,
      "怒": 2222,
      "思": 2223,
      "怡": 2224,
      "急": 2225,
      "性": 2226,
      "怪": 2227,
      "总": 2228,
      "恋": 2229,
      "恢": 2230,
      "恩": 2231,
      "息": 2232,
      "恵": 2233,
      "悟": 2234,
      "悠": 2235,
      "患": 2236,
      "您": 2237,
      "悩": 2238,
      "悪": 2239,
      "悬": 2240,
      "情": 2241,
      "惑": 2242,
      "惠": 2243,
      "惧": 2244,
      "惯": 2245,
      "想": 2246,
      "意": 2247,
      "愛": 2248,
      "感": 2249,
      "慈": 2250,
      "態": 2251,
      "慎": 2252,
      "慢": 2253,
      "慣": 2254,
      "慶": 2255,
      "憎": 2256,
      "憨": 2257,
      "憩": 2258,
      "憶": 2259,
      "憾": 2260,
      "應": 2261,
      "成": 2262,
      "我": 2263,
      "戒": 2264,
      "或": 2265,
      "战": 2266,
      "截": 2267,
      "戴": 2268,
      "戶": 2269,
      "户": 2270,
      "戸": 2271,
      "戻": 2272,
      "房": 2273,
      "所": 2274,
      "扈": 2275,
      "手": 2276,
      "才": 2277,
      "打": 2278,
      "払": 2279,
      "找": 2280,
      "承": 2281,
      "技": 2282,
      "投": 2283,
      "抗": 2284,
      "折": 2285,
      "抜": 2286,
      "护": 2287,
      "报": 2288,
      "抵": 2289,
      "抹": 2290,
      "押": 2291,
      "担": 2292,
      "拉": 2293,
      "拒": 2294,
      "拓": 2295,
      "招": 2296,
      "拟": 2297,
      "择": 2298,
      "括": 2299,
      "拳": 2300,
      "拼": 2301,
      "拿": 2302,
      "持": 2303,
      "挂": 2304,
      "指": 2305,
      "按": 2306,
      "挑": 2307,
      "挠": 2308,
      "挡": 2309,
      "振": 2310,
      "损": 2311,
      "据": 2312,
      "捷": 2313,
      "掉": 2314,
      "排": 2315,
      "掛": 2316,
      "採": 2317,
      "探": 2318,
      "接": 2319,
      "控": 2320,
      "推": 2321,
      "措": 2322,
      "掻": 2323,
      "揂": 2324,
      "揃": 2325,
      "提": 2326,
      "揚": 2327,
      "換": 2328,
      "握": 2329,
      "援": 2330,
      "搅": 2331,
      "損": 2332,
      "搜": 2333,
      "搞": 2334,
      "携": 2335,
      "摂": 2336,
      "摆": 2337,
      "摇": 2338,
      "摩": 2339,
      "撒": 2340,
      "撤": 2341,
      "撫": 2342,
      "播": 2343,
      "撮": 2344,
      "操": 2345,
      "支": 2346,
      "收": 2347,
      "改": 2348,
      "攻": 2349,
      "放": 2350,
      "政": 2351,
      "故": 2352,
      "效": 2353,
      "敏": 2354,
      "救": 2355,
      "教": 2356,
      "散": 2357,
      "敦": 2358,
      "敬": 2359,
      "数": 2360,
      "整": 2361,
      "文": 2362,
      "斗": 2363,
      "料": 2364,
      "斯": 2365,
      "新": 2366,
      "方": 2367,
      "施": 2368,
      "旅": 2369,
      "旋": 2370,
      "族": 2371,
      "无": 2372,
      "日": 2373,
      "旧": 2374,
      "旨": 2375,
      "旭": 2376,
      "旱": 2377,
      "时": 2378,
      "昇": 2379,
      "昌": 2380,
      "明": 2381,
      "易": 2382,
      "星": 2383,
      "映": 2384,
      "春": 2385,
      "昭": 2386,
      "是": 2387,
      "显": 2388,
      "時": 2389,
      "晏": 2390,
      "晨": 2391,
      "普": 2392,
      "景": 2393,
      "智": 2394,
      "暂": 2395,
      "暨": 2396,
      "暫": 2397,
      "暴": 2398,
      "曌": 2399,
      "曝": 2400,
      "更": 2401,
      "書": 2402,
      "曹": 2403,
      "曾": 2404,
      "最": 2405,
      "會": 2406,
      "月": 2407,
      "有": 2408,
      "服": 2409,
      "朔": 2410,
      "朗": 2411,
      "望": 2412,
      "朝": 2413,
      "期": 2414,
      "木": 2415,
      "未": 2416,
      "末": 2417,
      "本": 2418,
      "札": 2419,
      "术": 2420,
      "朱": 2421,
      "机": 2422,
      "杂": 2423,
      "李": 2424,
      "杏": 2425,
      "材": 2426,
      "村": 2427,
      "束": 2428,
      "条": 2429,
      "来": 2430,
      "杨": 2431,
      "杭": 2432,
      "東": 2433,
      "松": 2434,
      "板": 2435,
      "极": 2436,
      "构": 2437,
      "析": 2438,
      "林": 2439,
      "枚": 2440,
      "果": 2441,
      "枡": 2442,
      "枫": 2443,
      "架": 2444,
      "某": 2445,
      "染": 2446,
      "柔": 2447,
      "查": 2448,
      "柱": 2449,
      "柴": 2450,
      "标": 2451,
      "树": 2452,
      "校": 2453,
      "株": 2454,
      "样": 2455,
      "核": 2456,
      "根": 2457,
      "格": 2458,
      "栽": 2459,
      "桂": 2460,
      "桃": 2461,
      "框": 2462,
      "案": 2463,
      "桓": 2464,
      "桜": 2465,
      "桥": 2466,
      "桩": 2467,
      "桶": 2468,
      "梁": 2469,
      "梅": 2470,
      "梨": 2471,
      "械": 2472,
      "检": 2473,
      "棒": 2474,
      "森": 2475,
      "棲": 2476,
      "椅": 2477,
      "植": 2478,
      "検": 2479,
      "楠": 2480,
      "業": 2481,
      "極": 2482,
      "楼": 2483,
      "楽": 2484,
      "樓": 2485,
      "標": 2486,
      "模": 2487,
      "横": 2488,
      "樱": 2489,
      "樹": 2490,
      "橋": 2491,
      "機": 2492,
      "橿": 2493,
      "檀": 2494,
      "次": 2495,
      "欢": 2496,
      "欧": 2497,
      "款": 2498,
      "歌": 2499,
      "止": 2500,
      "正": 2501,
      "此": 2502,
      "步": 2503,
      "武": 2504,
      "歩": 2505,
      "歳": 2506,
      "歸": 2507,
      "死": 2508,
      "殊": 2509,
      "段": 2510,
      "殷": 2511,
      "殻": 2512,
      "殿": 2513,
      "毁": 2514,
      "母": 2515,
      "毎": 2516,
      "每": 2517,
      "毓": 2518,
      "比": 2519,
      "毛": 2520,
      "氏": 2521,
      "民": 2522,
      "气": 2523,
      "気": 2524,
      "氣": 2525,
      "氧": 2526,
      "氮": 2527,
      "水": 2528,
      "氷": 2529,
      "永": 2530,
      "汁": 2531,
      "求": 2532,
      "汇": 2533,
      "汉": 2534,
      "汕": 2535,
      "江": 2536,
      "池": 2537,
      "汤": 2538,
      "汴": 2539,
      "決": 2540,
      "沈": 2541,
      "沌": 2542,
      "沙": 2543,
      "沛": 2544,
      "没": 2545,
      "沢": 2546,
      "沪": 2547,
      "沱": 2548,
      "河": 2549,
      "油": 2550,
      "治": 2551,
      "沿": 2552,
      "況": 2553,
      "泄": 2554,
      "泉": 2555,
      "泊": 2556,
      "法": 2557,
      "波": 2558,
      "泥": 2559,
      "注": 2560,
      "泰": 2561,
      "泽": 2562,
      "洁": 2563,
      "洋": 2564,
      "洒": 2565,
      "洗": 2566,
      "洛": 2567,
      "洞": 2568,
      "洪": 2569,
      "洲": 2570,
      "活": 2571,
      "派": 2572,
      "流": 2573,
      "浄": 2574,
      "测": 2575,
      "济": 2576,
      "浙": 2577,
      "浜": 2578,
      "浦": 2579,
      "浮": 2580,
      "浴": 2581,
      "海": 2582,
      "涂": 2583,
      "消": 2584,
      "涌": 2585,
      "涩": 2586,
      "淡": 2587,
      "淫": 2588,
      "深": 2589,
      "混": 2590,
      "淹": 2591,
      "清": 2592,
      "済": 2593,
      "渋": 2594,
      "渐": 2595,
      "減": 2596,
      "渝": 2597,
      "渡": 2598,
      "温": 2599,
      "港": 2600,
      "渲": 2601,
      "渴": 2602,
      "游": 2603,
      "湄": 2604,
      "湖": 2605,
      "湘": 2606,
      "湯": 2607,
      "湾": 2608,
      "満": 2609,
      "溉": 2610,
      "源": 2611,
      "溜": 2612,
      "溝": 2613,
      "溢": 2614,
      "溥": 2615,
      "溪": 2616,
      "溫": 2617,
      "溯": 2618,
      "溶": 2619,
      "滇": 2620,
      "滞": 2621,
      "滨": 2622,
      "滬": 2623,
      "漢": 2624,
      "漫": 2625,
      "潜": 2626,
      "潟": 2627,
      "潢": 2628,
      "潭": 2629,
      "潮": 2630,
      "澄": 2631,
      "澎": 2632,
      "澤": 2633,
      "澳": 2634,
      "激": 2635,
      "濟": 2636,
      "濱": 2637,
      "灌": 2638,
      "灣": 2639,
      "火": 2640,
      "灯": 2641,
      "灰": 2642,
      "灾": 2643,
      "炎": 2644,
      "炯": 2645,
      "点": 2646,
      "為": 2647,
      "烈": 2648,
      "烏": 2649,
      "烦": 2650,
      "烧": 2651,
      "热": 2652,
      "無": 2653,
      "焦": 2654,
      "然": 2655,
      "焼": 2656,
      "煙": 2657,
      "照": 2658,
      "煩": 2659,
      "煮": 2660,
      "熊": 2661,
      "熟": 2662,
      "熨": 2663,
      "熱": 2664,
      "燃": 2665,
      "燕": 2666,
      "燗": 2667,
      "爆": 2668,
      "爛": 2669,
      "爪": 2670,
      "爱": 2671,
      "父": 2672,
      "爻": 2673,
      "爾": 2674,
      "片": 2675,
      "版": 2676,
      "牌": 2677,
      "牙": 2678,
      "牛": 2679,
      "物": 2680,
      "特": 2681,
      "状": 2682,
      "狐": 2683,
      "狗": 2684,
      "独": 2685,
      "狭": 2686,
      "猛": 2687,
      "猪": 2688,
      "献": 2689,
      "獄": 2690,
      "獲": 2691,
      "玄": 2692,
      "率": 2693,
      "玉": 2694,
      "王": 2695,
      "环": 2696,
      "现": 2697,
      "玲": 2698,
      "珈": 2699,
      "珍": 2700,
      "珠": 2701,
      "班": 2702,
      "球": 2703,
      "理": 2704,
      "琢": 2705,
      "琲": 2706,
      "瑠": 2707,
      "瑩": 2708,
      "璃": 2709,
      "璐": 2710,
      "環": 2711,
      "瓊": 2712,
      "瓶": 2713,
      "甜": 2714,
      "生": 2715,
      "用": 2716,
      "田": 2717,
      "由": 2718,
      "甲": 2719,
      "申": 2720,
      "电": 2721,
      "男": 2722,
      "甸": 2723,
      "町": 2724,
      "画": 2725,
      "界": 2726,
      "留": 2727,
      "畢": 2728,
      "略": 2729,
      "番": 2730,
      "畿": 2731,
      "疆": 2732,
      "疏": 2733,
      "疑": 2734,
      "疗": 2735,
      "疫": 2736,
      "病": 2737,
      "痛": 2738,
      "痴": 2739,
      "瘤": 2740,
      "癌": 2741,
      "癪": 2742,
      "発": 2743,
      "登": 2744,
      "白": 2745,
      "百": 2746,
      "的": 2747,
      "皇": 2748,
      "皮": 2749,
      "盆": 2750,
      "益": 2751,
      "盐": 2752,
      "监": 2753,
      "盖": 2754,
      "盗": 2755,
      "盛": 2756,
      "監": 2757,
      "盧": 2758,
      "目": 2759,
      "直": 2760,
      "相": 2761,
      "省": 2762,
      "看": 2763,
      "県": 2764,
      "真": 2765,
      "眩": 2766,
      "眼": 2767,
      "着": 2768,
      "睛": 2769,
      "睦": 2770,
      "瞎": 2771,
      "瞳": 2772,
      "瞻": 2773,
      "矢": 2774,
      "知": 2775,
      "短": 2776,
      "石": 2777,
      "矿": 2778,
      "码": 2779,
      "砂": 2780,
      "砕": 2781,
      "破": 2782,
      "硝": 2783,
      "硬": 2784,
      "确": 2785,
      "碁": 2786,
      "碍": 2787,
      "碧": 2788,
      "碳": 2789,
      "確": 2790,
      "磁": 2791,
      "磨": 2792,
      "磷": 2793,
      "礱": 2794,
      "示": 2795,
      "礼": 2796,
      "社": 2797,
      "祖": 2798,
      "祝": 2799,
      "神": 2800,
      "票": 2801,
      "祭": 2802,
      "祸": 2803,
      "祿": 2804,
      "禁": 2805,
      "禅": 2806,
      "福": 2807,
      "禪": 2808,
      "禹": 2809,
      "禽": 2810,
      "秀": 2811,
      "私": 2812,
      "秉": 2813,
      "秋": 2814,
      "种": 2815,
      "科": 2816,
      "租": 2817,
      "秦": 2818,
      "积": 2819,
      "称": 2820,
      "移": 2821,
      "稀": 2822,
      "稅": 2823,
      "程": 2824,
      "税": 2825,
      "稱": 2826,
      "稲": 2827,
      "稳": 2828,
      "稻": 2829,
      "稼": 2830,
      "稿": 2831,
      "穷": 2832,
      "空": 2833,
      "立": 2834,
      "站": 2835,
      "竜": 2836,
      "竞": 2837,
      "章": 2838,
      "端": 2839,
      "競": 2840,
      "竹": 2841,
      "笠": 2842,
      "第": 2843,
      "筆": 2844,
      "等": 2845,
      "筑": 2846,
      "答": 2847,
      "策": 2848,
      "签": 2849,
      "简": 2850,
      "箍": 2851,
      "箕": 2852,
      "管": 2853,
      "箱": 2854,
      "節": 2855,
      "篇": 2856,
      "簡": 2857,
      "米": 2858,
      "类": 2859,
      "粉": 2860,
      "粤": 2861,
      "粮": 2862,
      "粵": 2863,
      "精": 2864,
      "糖": 2865,
      "糸": 2866,
      "系": 2867,
      "紀": 2868,
      "紂": 2869,
      "紅": 2870,
      "紋": 2871,
      "納": 2872,
      "純": 2873,
      "紙": 2874,
      "級": 2875,
      "素": 2876,
      "索": 2877,
      "紧": 2878,
      "細": 2879,
      "紹": 2880,
      "終": 2881,
      "経": 2882,
      "結": 2883,
      "絞": 2884,
      "統": 2885,
      "經": 2886,
      "継": 2887,
      "続": 2888,
      "網": 2889,
      "綺": 2890,
      "総": 2891,
      "線": 2892,
      "縣": 2893,
      "縮": 2894,
      "繁": 2895,
      "織": 2896,
      "红": 2897,
      "约": 2898,
      "级": 2899,
      "纪": 2900,
      "纷": 2901,
      "纸": 2902,
      "纹": 2903,
      "纽": 2904,
      "线": 2905,
      "组": 2906,
      "细": 2907,
      "终": 2908,
      "绍": 2909,
      "经": 2910,
      "绝": 2911,
      "绞": 2912,
      "统": 2913,
      "绪": 2914,
      "续": 2915,
      "维": 2916,
      "缓": 2917,
      "缩": 2918,
      "缺": 2919,
      "网": 2920,
      "罗": 2921,
      "罪": 2922,
      "置": 2923,
      "署": 2924,
      "羅": 2925,
      "美": 2926,
      "群": 2927,
      "義": 2928,
      "羲": 2929,
      "羽": 2930,
      "翁": 2931,
      "習": 2932,
      "翠": 2933,
      "翻": 2934,
      "翼": 2935,
      "耀": 2936,
      "老": 2937,
      "考": 2938,
      "者": 2939,
      "而": 2940,
      "耐": 2941,
      "耕": 2942,
      "耳": 2943,
      "耶": 2944,
      "耸": 2945,
      "联": 2946,
      "聖": 2947,
      "聞": 2948,
      "聼": 2949,
      "肉": 2950,
      "股": 2951,
      "肥": 2952,
      "育": 2953,
      "胁": 2954,
      "背": 2955,
      "胖": 2956,
      "胜": 2957,
      "胞": 2958,
      "胡": 2959,
      "能": 2960,
      "脑": 2961,
      "脖": 2962,
      "脚": 2963,
      "脱": 2964,
      "腔": 2965,
      "腕": 2966,
      "腰": 2967,
      "腹": 2968,
      "腺": 2969,
      "膚": 2970,
      "臂": 2971,
      "臈": 2972,
      "臓": 2973,
      "臘": 2974,
      "臣": 2975,
      "臧": 2976,
      "臨": 2977,
      "自": 2978,
      "至": 2979,
      "致": 2980,
      "臺": 2981,
      "舁": 2982,
      "舅": 2983,
      "興": 2984,
      "舊": 2985,
      "舍": 2986,
      "舐": 2987,
      "舖": 2988,
      "舞": 2989,
      "舣": 2990,
      "舩": 2991,
      "航": 2992,
      "舫": 2993,
      "般": 2994,
      "艮": 2995,
      "良": 2996,
      "色": 2997,
      "艳": 2998,
      "节": 2999,
      "芋": 3000,
      "芝": 3001,
      "芦": 3002,
      "花": 3003,
      "苏": 3004,
      "苑": 3005,
      "若": 3006,
      "英": 3007,
      "茂": 3008,
      "茜": 3009,
      "茨": 3010,
      "茶": 3011,
      "草": 3012,
      "荣": 3013,
      "荷": 3014,
      "莉": 3015,
      "莞": 3016,
      "莨": 3017,
      "莲": 3018,
      "获": 3019,
      "莹": 3020,
      "菜": 3021,
      "菩": 3022,
      "華": 3023,
      "菱": 3024,
      "萄": 3025,
      "营": 3026,
      "萧": 3027,
      "萬": 3028,
      "落": 3029,
      "葉": 3030,
      "著": 3031,
      "葡": 3032,
      "董": 3033,
      "蒋": 3034,
      "蒸": 3035,
      "蓋": 3036,
      "蓟": 3037,
      "蓮": 3038,
      "蔓": 3039,
      "蔚": 3040,
      "蔣": 3041,
      "蕭": 3042,
      "蕴": 3043,
      "薇": 3044,
      "薊": 3045,
      "薔": 3046,
      "薬": 3047,
      "薯": 3048,
      "藍": 3049,
      "藏": 3050,
      "藕": 3051,
      "藤": 3052,
      "蘇": 3053,
      "虑": 3054,
      "號": 3055,
      "虫": 3056,
      "蛋": 3057,
      "蜀": 3058,
      "蝦": 3059,
      "融": 3060,
      "螨": 3061,
      "螳": 3062,
      "螺": 3063,
      "蟲": 3064,
      "血": 3065,
      "衆": 3066,
      "行": 3067,
      "術": 3068,
      "街": 3069,
      "衡": 3070,
      "衣": 3071,
      "表": 3072,
      "裂": 3073,
      "装": 3074,
      "裕": 3075,
      "製": 3076,
      "西": 3077,
      "要": 3078,
      "見": 3079,
      "視": 3080,
      "覧": 3081,
      "親": 3082,
      "観": 3083,
      "覺": 3084,
      "见": 3085,
      "观": 3086,
      "视": 3087,
      "觉": 3088,
      "角": 3089,
      "解": 3090,
      "触": 3091,
      "言": 3092,
      "訃": 3093,
      "訊": 3094,
      "討": 3095,
      "訓": 3096,
      "記": 3097,
      "設": 3098,
      "許": 3099,
      "訳": 3100,
      "詠": 3101,
      "試": 3102,
      "詩": 3103,
      "詰": 3104,
      "話": 3105,
      "詳": 3106,
      "詹": 3107,
      "誓": 3108,
      "語": 3109,
      "說": 3110,
      "説": 3111,
      "読": 3112,
      "調": 3113,
      "談": 3114,
      "請": 3115,
      "論": 3116,
      "諸": 3117,
      "謑": 3118,
      "證": 3119,
      "警": 3120,
      "譯": 3121,
      "護": 3122,
      "讃": 3123,
      "變": 3124,
      "计": 3125,
      "讣": 3126,
      "认": 3127,
      "讨": 3128,
      "让": 3129,
      "议": 3130,
      "讯": 3131,
      "记": 3132,
      "讲": 3133,
      "许": 3134,
      "论": 3135,
      "讼": 3136,
      "设": 3137,
      "证": 3138,
      "评": 3139,
      "识": 3140,
      "诉": 3141,
      "译": 3142,
      "试": 3143,
      "诘": 3144,
      "话": 3145,
      "该": 3146,
      "详": 3147,
      "语": 3148,
      "说": 3149,
      "请": 3150,
      "诺": 3151,
      "课": 3152,
      "调": 3153,
      "谈": 3154,
      "谋": 3155,
      "谢": 3156,
      "谷": 3157,
      "豆": 3158,
      "豊": 3159,
      "豐": 3160,
      "豫": 3161,
      "貌": 3162,
      "負": 3163,
      "財": 3164,
      "貢": 3165,
      "販": 3166,
      "貮": 3167,
      "貰": 3168,
      "貴": 3169,
      "貸": 3170,
      "費": 3171,
      "賀": 3172,
      "資": 3173,
      "賈": 3174,
      "賢": 3175,
      "贊": 3176,
      "贞": 3177,
      "负": 3178,
      "贡": 3179,
      "贤": 3180,
      "货": 3181,
      "质": 3182,
      "贫": 3183,
      "购": 3184,
      "贱": 3185,
      "贳": 3186,
      "贷": 3187,
      "贸": 3188,
      "费": 3189,
      "资": 3190,
      "赌": 3191,
      "赖": 3192,
      "赛": 3193,
      "赞": 3194,
      "赤": 3195,
      "赵": 3196,
      "赶": 3197,
      "起": 3198,
      "超": 3199,
      "越": 3200,
      "趋": 3201,
      "趙": 3202,
      "足": 3203,
      "跆": 3204,
      "跋": 3205,
      "跟": 3206,
      "跨": 3207,
      "路": 3208,
      "跳": 3209,
      "踌": 3210,
      "蹟": 3211,
      "躇": 3212,
      "躊": 3213,
      "躍": 3214,
      "身": 3215,
      "車": 3216,
      "軍": 3217,
      "転": 3218,
      "較": 3219,
      "載": 3220,
      "輪": 3221,
      "车": 3222,
      "转": 3223,
      "轮": 3224,
      "轻": 3225,
      "载": 3226,
      "较": 3227,
      "辑": 3228,
      "辛": 3229,
      "辞": 3230,
      "辭": 3231,
      "辱": 3232,
      "農": 3233,
      "込": 3234,
      "达": 3235,
      "迅": 3236,
      "过": 3237,
      "迎": 3238,
      "运": 3239,
      "近": 3240,
      "返": 3241,
      "还": 3242,
      "这": 3243,
      "进": 3244,
      "远": 3245,
      "连": 3246,
      "迫": 3247,
      "述": 3248,
      "迷": 3249,
      "追": 3250,
      "送": 3251,
      "适": 3252,
      "逃": 3253,
      "逆": 3254,
      "选": 3255,
      "透": 3256,
      "途": 3257,
      "通": 3258,
      "速": 3259,
      "造": 3260,
      "逢": 3261,
      "連": 3262,
      "逸": 3263,
      "遇": 3264,
      "遊": 3265,
      "運": 3266,
      "過": 3267,
      "道": 3268,
      "達": 3269,
      "遗": 3270,
      "遝": 3271,
      "遠": 3272,
      "遣": 3273,
      "適": 3274,
      "遪": 3275,
      "遭": 3276,
      "遲": 3277,
      "遷": 3278,
      "遽": 3279,
      "避": 3280,
      "還": 3281,
      "邊": 3282,
      "邑": 3283,
      "那": 3284,
      "邱": 3285,
      "郎": 3286,
      "郑": 3287,
      "郝": 3288,
      "郡": 3289,
      "部": 3290,
      "郷": 3291,
      "都": 3292,
      "鄂": 3293,
      "鄉": 3294,
      "鄭": 3295,
      "酉": 3296,
      "配": 3297,
      "酎": 3298,
      "酒": 3299,
      "酸": 3300,
      "采": 3301,
      "釉": 3302,
      "里": 3303,
      "重": 3304,
      "野": 3305,
      "量": 3306,
      "金": 3307,
      "釣": 3308,
      "鈍": 3309,
      "鈴": 3310,
      "鉄": 3311,
      "鉋": 3312,
      "銀": 3313,
      "銭": 3314,
      "鋍": 3315,
      "鋑": 3316,
      "鋒": 3317,
      "鋓": 3318,
      "鋖": 3319,
      "鋘": 3320,
      "鋜": 3321,
      "鋝": 3322,
      "鋞": 3323,
      "鋟": 3324,
      "録": 3325,
      "鍋": 3326,
      "鎚": 3327,
      "鏡": 3328,
      "鐵": 3329,
      "针": 3330,
      "钓": 3331,
      "钟": 3332,
      "钢": 3333,
      "钦": 3334,
      "钧": 3335,
      "钱": 3336,
      "铁": 3337,
      "铃": 3338,
      "铭": 3339,
      "银": 3340,
      "链": 3341,
      "销": 3342,
      "锈": 3343,
      "锋": 3344,
      "错": 3345,
      "锦": 3346,
      "键": 3347,
      "镜": 3348,
      "長": 3349,
      "长": 3350,
      "門": 3351,
      "開": 3352,
      "間": 3353,
      "関": 3354,
      "閣": 3355,
      "閥": 3356,
      "閩": 3357,
      "關": 3358,
      "门": 3359,
      "问": 3360,
      "间": 3361,
      "闵": 3362,
      "闻": 3363,
      "闽": 3364,
      "阜": 3365,
      "队": 3366,
      "阪": 3367,
      "防": 3368,
      "阳": 3369,
      "阶": 3370,
      "阻": 3371,
      "阿": 3372,
      "陀": 3373,
      "际": 3374,
      "陈": 3375,
      "降": 3376,
      "限": 3377,
      "院": 3378,
      "除": 3379,
      "险": 3380,
      "陰": 3381,
      "陳": 3382,
      "陵": 3383,
      "陶": 3384,
      "陽": 3385,
      "隆": 3386,
      "隊": 3387,
      "階": 3388,
      "際": 3389,
      "障": 3390,
      "难": 3391,
      "雄": 3392,
      "雅": 3393,
      "集": 3394,
      "雙": 3395,
      "雛": 3396,
      "離": 3397,
      "難": 3398,
      "雨": 3399,
      "雪": 3400,
      "雲": 3401,
      "雷": 3402,
      "電": 3403,
      "需": 3404,
      "霊": 3405,
      "霖": 3406,
      "霜": 3407,
      "露": 3408,
      "青": 3409,
      "静": 3410,
      "非": 3411,
      "靠": 3412,
      "面": 3413,
      "革": 3414,
      "靳": 3415,
      "韓": 3416,
      "音": 3417,
      "韻": 3418,
      "頂": 3419,
      "項": 3420,
      "順": 3421,
      "須": 3422,
      "頑": 3423,
      "領": 3424,
      "頭": 3425,
      "題": 3426,
      "顗": 3427,
      "顯": 3428,
      "页": 3429,
      "顶": 3430,
      "顷": 3431,
      "须": 3432,
      "顾": 3433,
      "预": 3434,
      "颐": 3435,
      "颖": 3436,
      "题": 3437,
      "颜": 3438,
      "额": 3439,
      "風": 3440,
      "风": 3441,
      "飛": 3442,
      "飞": 3443,
      "食": 3444,
      "飯": 3445,
      "飲": 3446,
      "飼": 3447,
      "館": 3448,
      "饮": 3449,
      "饲": 3450,
      "馆": 3451,
      "首": 3452,
      "香": 3453,
      "馬": 3454,
      "駄": 3455,
      "駅": 3456,
      "験": 3457,
      "騙": 3458,
      "騜": 3459,
      "驗": 3460,
      "马": 3461,
      "验": 3462,
      "骨": 3463,
      "髄": 3464,
      "體": 3465,
      "高": 3466,
      "鬼": 3467,
      "魔": 3468,
      "鮨": 3469,
      "鮮": 3470,
      "鯨": 3471,
      "鰀": 3472,
      "鰃": 3473,
      "鰄": 3474,
      "鰈": 3475,
      "鰊": 3476,
      "鰎": 3477,
      "鱲": 3478,
      "鱼": 3479,
      "鲁": 3480,
      "鲞": 3481,
      "鳩": 3482,
      "鳳": 3483,
      "鴻": 3484,
      "鵜": 3485,
      "鷹": 3486,
      "鸡": 3487,
      "鸭": 3488,
      "鸯": 3489,
      "鸳": 3490,
      "鹅": 3491,
      "鹈": 3492,
      "鹤": 3493,
      "鹿": 3494,
      "麗": 3495,
      "麩": 3496,
      "麺": 3497,
      "黃": 3498,
      "黄": 3499,
      "黎": 3500,
      "黒": 3501,
      "黚": 3502,
      "點": 3503,
      "黡": 3504,
      "黨": 3505,
      "黮": 3506,
      "黵": 3507,
      "黷": 3508,
      "鼻": 3509,
      "齋": 3510,
      "齡": 3511,
      "龍": 3512,
      "龙": 3513,
      "검": 3514,
      "겜": 3515,
      "경": 3516,
      "계": 3517,
      "고": 3518,
      "곡": 3519,
      "구": 3520,
      "국": 3521,
      "군": 3522,
      "권": 3523,
      "글": 3524,
      "김": 3525,
      "뀌": 3526,
      "나": 3527,
      "널": 3528,
      "녀": 3529,
      "년": 3530,
      "노": 3531,
      "누": 3532,
      "는": 3533,
      "니": 3534,
      "닌": 3535,
      "님": 3536,
      "다": 3537,
      "단": 3538,
      "당": 3539,
      "대": 3540,
      "도": 3541,
      "돌": 3542,
      "동": 3543,
      "드": 3544,
      "디": 3545,
      "딘": 3546,
      "딩": 3547,
      "라": 3548,
      "레": 3549,
      "려": 3550,
      "령": 3551,
      "로": 3552,
      "루": 3553,
      "류": 3554,
      "르": 3555,
      "린": 3556,
      "마": 3557,
      "막": 3558,
      "맨": 3559,
      "면": 3560,
      "목": 3561,
      "무": 3562,
      "문": 3563,
      "미": 3564,
      "바": 3565,
      "박": 3566,
      "반": 3567,
      "백": 3568,
      "뱅": 3569,
      "번": 3570,
      "벌": 3571,
      "법": 3572,
      "베": 3573,
      "변": 3574,
      "별": 3575,
      "보": 3576,
      "블": 3577,
      "비": 3578,
      "빅": 3579,
      "빌": 3580,
      "빛": 3581,
      "사": 3582,
      "산": 3583,
      "서": 3584,
      "선": 3585,
      "성": 3586,
      "세": 3587,
      "셀": 3588,
      "셔": 3589,
      "셜": 3590,
      "소": 3591,
      "수": 3592,
      "스": 3593,
      "습": 3594,
      "승": 3595,
      "시": 3596,
      "신": 3597,
      "싱": 3598,
      "아": 3599,
      "알": 3600,
      "압": 3601,
      "야": 3602,
      "양": 3603,
      "어": 3604,
      "었": 3605,
      "에": 3606,
      "엘": 3607,
      "엠": 3608,
      "영": 3609,
      "오": 3610,
      "왕": 3611,
      "요": 3612,
      "울": 3613,
      "웅": 3614,
      "워": 3615,
      "월": 3616,
      "웨": 3617,
      "위": 3618,
      "유": 3619,
      "율": 3620,
      "으": 3621,
      "을": 3622,
      "읍": 3623,
      "이": 3624,
      "인": 3625,
      "일": 3626,
      "자": 3627,
      "작": 3628,
      "적": 3629,
      "전": 3630,
      "정": 3631,
      "제": 3632,
      "조": 3633,
      "존": 3634,
      "종": 3635,
      "주": 3636,
      "지": 3637,
      "짝": 3638,
      "창": 3639,
      "천": 3640,
      "체": 3641,
      "추": 3642,
      "충": 3643,
      "층": 3644,
      "치": 3645,
      "클": 3646,
      "키": 3647,
      "킨": 3648,
      "태": 3649,
      "터": 3650,
      "턴": 3651,
      "톨": 3652,
      "퇴": 3653,
      "트": 3654,
      "티": 3655,
      "퍼": 3656,
      "폐": 3657,
      "피": 3658,
      "한": 3659,
      "향": 3660,
      "호": 3661,
      "환": 3662,
      "회": 3663,
      "훈": 3664,
      "": 3665,
      "": 3666,
      "": 3667,
      "": 3668,
      "": 3669,
      "": 3670,
      "": 3671,
      "": 3672,
      "": 3673,
      "": 3674,
      "": 3675,
      "": 3676,
      "": 3677,
      "": 3678,
      "": 3679,
      "": 3680,
      "": 3681,
      "": 3682,
      "": 3683,
      "": 3684,
      "": 3685,
      "": 3686,
      "": 3687,
      "": 3688,
      "": 3689,
      "": 3690,
      "": 3691,
      "": 3692,
      "金": 3693,
      "ﬁ": 3694,
      "ﬂ": 3695,
      "ﷲ": 3696,
      "︰": 3697,
      "ﺍ": 3698,
      "ﺏ": 3699,
      "ﺤ": 3700,
      "ﺩ": 3701,
      "ﻁ": 3702,
      "ﻙ": 3703,
      "ﻫ": 3704,
      "﻿": 3705,
      "！": 3706,
      "＄": 3707,
      "（": 3708,
      "）": 3709,
      "＊": 3710,
      "，": 3711,
      "－": 3712,
      "．": 3713,
      "１": 3714,
      "２": 3715,
      "７": 3716,
      "９": 3717,
      "：": 3718,
      "；": 3719,
      "？": 3720,
      "Ｉ": 3721,
      "Ｐ": 3722,
      "Ｓ": 3723,
      "Ｖ": 3724,
      "［": 3725,
      "］": 3726,
      "ｂ": 3727,
      "ｄ": 3728,
      "ｅ": 3729,
      "ｈ": 3730,
      "ｌ": 3731,
      "ｏ": 3732,
      "ｓ": 3733,
      "ｔ": 3734,
      "ｕ": 3735,
      "､": 3736,
      "･": 3737,
      "ｫ": 3738,
      "ｲ": 3739,
      "ｻ": 3740,
      "ｿ": 3741,
      "ﾜ": 3742,
      "ﾟ": 3743,
      "￠": 3744,
      "￡": 3745,
      "￥": 3746,
      "￼": 3747,
      "�": 3748,
      "𐌰": 3749,
      "𐌴": 3750,
      "𐌸": 3751,
      "𐌼": 3752,
      "𐌽": 3753,
      "𐍃": 3754,
      "𐍉": 3755,
      "𠐄": 3756,
      "𢥲": 3757,
      "𧵮": 3758,
      "𲠄": 3759,
      "𲠤": 3760,
      "򮬩": 3761,
      "򮮥": 3762,
      "򲤥": 3763,
      "򲵮": 3764,
      "򴩧": 3765,
      "en": 3766,
      "er": 3767,
      "in": 3768,
      "ch": 3769,
      "th": 3770,
      "an": 3771,
      "es": 3772,
      "on": 3773,
      "un": 3774,
      "is": 3775,
      "at": 3776,
      "it": 3777,
      "ie": 3778,
      "or": 3779,
      "al": 3780,
      "the": 3781,
      "ar": 3782,
      "st": 3783,
      "re": 3784,
      "der": 3785,
      ".\"": 3786,
      "ich": 3787,
      "as": 3788,
      "ion": 3789,
      "ur": 3790,
      "le": 3791,
      "and": 3792,
      "te": 3793,
      "of": 3794,
      "ein": 3795,
      "ge": 3796,
      "to": 3797,
      "ent": 3798,
      "de": 3799,
      "be": 3800,
      "au": 3801,
      "und": 3802,
      "om": 3803,
      "ung": 3804,
      "ing": 3805,
      "die": 3806,
      "ro": 3807,
      "el": 3808,
      "den": 3809,
      "il": 3810,
      ".\",": 3811,
      "ig": 3812,
      "ic": 3813,
      "ed": 3814,
      "ol": 3815,
      "am": 3816,
      "ir": 3817,
      "us": 3818,
      "im": 3819,
      "ter": 3820,
      "ver": 3821,
      "for": 3822,
      "ten": 3823,
      ".\",\"": 3824,
      "sch": 3825,
      "se": 3826,
      "ation": 3827,
      "zu": 3828,
      "op": 3829,
      "he": 3830,
      "ab": 3831,
      "ut": 3832,
      "ra": 3833,
      "we": 3834,
      "hr": 3835,
      "ies": 3836,
      "ist": 3837,
      "em": 3838,
      "ul": 3839,
      "ct": 3840,
      "ne": 3841,
      "ber": 3842,
      "gen": 3843,
      "lich": 3844,
      "ve": 3845,
      ".,": 3846,
      "all": 3847,
      "um": 3848,
      "ür": 3849,
      "no": 3850,
      "isch": 3851,
      "ier": 3852,
      "icht": 3853,
      "das": 3854,
      "pro": 3855,
      "ke": 3856,
      "that": 3857,
      "est": 3858,
      "so": 3859,
      "con": 3860,
      "ach": 3861,
      "ess": 3862,
      "omm": 3863,
      "von": 3864,
      "sp": 3865,
      "ce": 3866,
      "auf": 3867,
      "ad": 3868,
      "are": 3869,
      "wh": 3870,
      "id": 3871,
      "wir": 3872,
      "ere": 3873,
      "lo": 3874,
      "et": 3875,
      "In": 3876,
      "ith": 3877,
      "mit": 3878,
      "la": 3879,
      "our": 3880,
      "ly": 3881,
      "für": 3882,
      "wer": 3883,
      "kt": 3884,
      "des": 3885,
      "if": 3886,
      "ort": 3887,
      "with": 3888,
      "eine": 3889,
      "ind": 3890,
      "urop": 3891,
      "The": 3892,
      "tr": 3893,
      "pr": 3894,
      "su": 3895,
      "ha": 3896,
      "aus": 3897,
      "ou": 3898,
      "ill": 3899,
      "dem": 3900,
      "Ver": 3901,
      "iv": 3902,
      "dies": 3903,
      "ts": 3904,
      "ho": 3905,
      "me": 3906,
      "ta": 3907,
      "ck": 3908,
      "ment": 3909,
      "Europ": 3910,
      "po": 3911,
      "af": 3912,
      "ma": 3913,
      "ell": 3914,
      "men": 3915,
      "ate": 3916,
      "ex": 3917,
      "gr": 3918,
      "fr": 3919,
      "ges": 3920,
      "qu": 3921,
      "co": 3922,
      "iss": 3923,
      "da": 3924,
      "ungen": 3925,
      "Un": 3926,
      "nen": 3927,
      "ben": 3928,
      "com": 3929,
      "00": 3930,
      "ischen": 3931,
      "tel": 3932,
      "ien": 3933,
      "art": 3934,
      "ze": 3935,
      "res": 3936,
      "this": 3937,
      "not": 3938,
      "ity": 3939,
      "ers": 3940,
      "An": 3941,
      "ust": 3942,
      "sich": 3943,
      "ive": 3944,
      "St": 3945,
      "Sie": 3946,
      "nicht": 3947,
      "ant": 3948,
      "end": 3949,
      "Re": 3950,
      "\"\"": 3951,
      "über": 3952,
      "by": 3953,
      "ap": 3954,
      "ag": 3955,
      "ib": 3956,
      "ser": 3957,
      "än": 3958,
      "werden": 3959,
      "ial": 3960,
      "ah": 3961,
      "auch": 3962,
      "li": 3963,
      "sen": 3964,
      "lie": 3965,
      "ann": 3966,
      "mo": 3967,
      "fa": 3968,
      "wor": 3969,
      "iel": 3970,
      "dass": 3971,
      "have": 3972,
      "port": 3973,
      "pe": 3974,
      "igen": 3975,
      "wo": 3976,
      "igh": 3977,
      "vor": 3978,
      "its": 3979,
      "Die": 3980,
      "Be": 3981,
      "you": 3982,
      "will": 3983,
      "fe": 3984,
      "uld": 3985,
      "man": 3986,
      "was": 3987,
      "ik": 3988,
      "ern": 3989,
      "ay": 3990,
      "als": 3991,
      "ac": 3992,
      "du": 3993,
      "tz": 3994,
      "wie": 3995,
      "hen": 3996,
      "do": 3997,
      "per": 3998,
      "ions": 3999,
      "which": 4000,
      "tra": 4001,
      "Sch": 4002,
      ".,\"": 4003,
      "ommiss": 4004,
      "hal": 4005,
      "Europe": 4006,
      "ted": 4007,
      "ungs": 4008,
      "Th": 4009,
      "ste": 4010,
      "from": 4011,
      "up": 4012,
      "We": 4013,
      "ther": 4014,
      "has": 4015,
      "form": 4016,
      "str": 4017,
      "oll": 4018,
      "out": 4019,
      "fer": 4020,
      "Pro": 4021,
      "sind": 4022,
      "age": 4023,
      "can": 4024,
      "schaf": 4025,
      "ip": 4026,
      "einer": 4027,
      "sit": 4028,
      "En": 4029,
      "war": 4030,
      "imm": 4031,
      "ommission": 4032,
      "able": 4033,
      "ident": 4034,
      "one": 4035,
      "ug": 4036,
      "inter": 4037,
      "fen": 4038,
      "wird": 4039,
      "fü": 4040,
      "bei": 4041,
      "hat": 4042,
      "ine": 4043,
      "ure": 4044,
      "je": 4045,
      "ide": 4046,
      "ön": 4047,
      "uss": 4048,
      "Er": 4049,
      "aben": 4050,
      "einen": 4051,
      "Par": 4052,
      "ang": 4053,
      "ische": 4054,
      "io": 4055,
      "Ho": 4056,
      "her": 4057,
      "Ar": 4058,
      "ft": 4059,
      "iz": 4060,
      "pl": 4061,
      "fin": 4062,
      "oder": 4063,
      "urch": 4064,
      "bes": 4065,
      "ise": 4066,
      "br": 4067,
      "Au": 4068,
      "enn": 4069,
      "go": 4070,
      "ire": 4071,
      "ger": 4072,
      "ick": 4073,
      "bo": 4074,
      "unter": 4075,
      "iten": 4076,
      "ia": 4077,
      "200": 4078,
      "ass": 4079,
      "pol": 4080,
      "zur": 4081,
      "hren": 4082,
      "ige": 4083,
      "ament": 4084,
      "ore": 4085,
      "European": 4086,
      "sie": 4087,
      "ations": 4088,
      "haben": 4089,
      "Mit": 4090,
      "Her": 4091,
      "also": 4092,
      "cl": 4093,
      "ard": 4094,
      "ally": 4095,
      "Aus": 4096,
      "Pr": 4097,
      "part": 4098,
      "Fr": 4099,
      "Al": 4100,
      "ction": 4101,
      "comp": 4102,
      "uns": 4103,
      "lichen": 4104,
      "chen": 4105,
      "ult": 4106,
      "dr": 4107,
      "Ein": 4108,
      "ice": 4109,
      "ational": 4110,
      "ated": 4111,
      "ok": 4112,
      "ät": 4113,
      "che": 4114,
      "kön": 4115,
      "..": 4116,
      "ank": 4117,
      "spe": 4118,
      "very": 4119,
      "nach": 4120,
      "dern": 4121,
      "gan": 4122,
      "od": 4123,
      "mö": 4124,
      "ange": 4125,
      "reg": 4126,
      "aten": 4127,
      "sten": 4128,
      "Ge": 4129,
      "ss": 4130,
      "cht": 4131,
      "hl": 4132,
      "Wir": 4133,
      "sho": 4134,
      "schaft": 4135,
      "og": 4136,
      "ans": 4137,
      "ff": 4138,
      "ieren": 4139,
      "alle": 4140,
      "gro": 4141,
      "ob": 4142,
      "Se": 4143,
      "rit": 4144,
      "wn": 4145,
      "ht": 4146,
      "ish": 4147,
      "stell": 4148,
      "ear": 4149,
      "sh": 4150,
      "är": 4151,
      "vel": 4152,
      "ue": 4153,
      "weit": 4154,
      "ight": 4155,
      "work": 4156,
      "ble": 4157,
      "your": 4158,
      "cess": 4159,
      "Das": 4160,
      "Union": 4161,
      "iert": 4162,
      "einem": 4163,
      "ates": 4164,
      "durch": 4165,
      "ander": 4166,
      "leg": 4167,
      "kann": 4168,
      "wur": 4169,
      "yst": 4170,
      "pt": 4171,
      "19": 4172,
      "ord": 4173,
      "ub": 4174,
      "tet": 4175,
      "dar": 4176,
      "hin": 4177,
      "comm": 4178,
      "Gr": 4179,
      "elt": 4180,
      "keit": 4181,
      "ign": 4182,
      "ün": 4183,
      "ast": 4184,
      "use": 4185,
      "tim": 4186,
      "but": 4187,
      "national": 4188,
      "It": 4189,
      "cre": 4190,
      "Vor": 4191,
      "ember": 4192,
      "coun": 4193,
      "ical": 4194,
      "ystem": 4195,
      "Ber": 4196,
      "ame": 4197,
      "ot": 4198,
      "Ich": 4199,
      "fre": 4200,
      "ite": 4201,
      "ome": 4202,
      "ak": 4203,
      "fol": 4204,
      "können": 4205,
      "there": 4206,
      "äs": 4207,
      "ance": 4208,
      "liche": 4209,
      "EU": 4210,
      "Mr": 4211,
      "more": 4212,
      "ary": 4213,
      "pre": 4214,
      "ud": 4215,
      "ih": 4216,
      "Commission": 4217,
      "ör": 4218,
      "beit": 4219,
      "mar": 4220,
      "Le": 4221,
      "Herr": 4222,
      "ple": 4223,
      "pla": 4224,
      "ommen": 4225,
      "land": 4226,
      "ain": 4227,
      "Ab": 4228,
      "lt": 4229,
      "ahr": 4230,
      "zum": 4231,
      "would": 4232,
      "ssen": 4233,
      "lin": 4234,
      "par": 4235,
      "been": 4236,
      "their": 4237,
      "ese": 4238,
      "any": 4239,
      "ition": 4240,
      "min": 4241,
      "cial": 4242,
      "heit": 4243,
      "tre": 4244,
      "bar": 4245,
      "ile": 4246,
      "dis": 4247,
      "chte": 4248,
      "Ent": 4249,
      "av": 4250,
      "ins": 4251,
      "zen": 4252,
      "glich": 4253,
      "other": 4254,
      "De": 4255,
      "Ges": 4256,
      "sel": 4257,
      "Europä": 4258,
      "uch": 4259,
      "wä": 4260,
      "now": 4261,
      "This": 4262,
      "ong": 4263,
      "mer": 4264,
      "ens": 4265,
      "ute": 4266,
      "way": 4267,
      "chn": 4268,
      "nur": 4269,
      "produ": 4270,
      "diese": 4271,
      "Hotel": 4272,
      "Unter": 4273,
      "hand": 4274,
      "ents": 4275,
      "prov": 4276,
      "gel": 4277,
      "cr": 4278,
      "ken": 4279,
      "neh": 4280,
      "act": 4281,
      "polit": 4282,
      "ian": 4283,
      "Der": 4284,
      "new": 4285,
      "should": 4286,
      "ase": 4287,
      "reich": 4288,
      "gt": 4289,
      "ner": 4290,
      "ück": 4291,
      "Pres": 4292,
      "vie": 4293,
      "net": 4294,
      "Sp": 4295,
      "For": 4296,
      "Kon": 4297,
      "under": 4298,
      "unser": 4299,
      "ful": 4300,
      "ll": 4301,
      "who": 4302,
      "ater": 4303,
      "ev": 4304,
      "teil": 4305,
      "gram": 4306,
      "cent": 4307,
      "ution": 4308,
      "sol": 4309,
      "noch": 4310,
      "ierung": 4311,
      "stand": 4312,
      "mü": 4313,
      "bet": 4314,
      "soll": 4315,
      "Co": 4316,
      "Ih": 4317,
      "etz": 4318,
      "äsident": 4319,
      "dieser": 4320,
      "Te": 4321,
      "kon": 4322,
      "bere": 4323,
      "Es": 4324,
      "ktion": 4325,
      "countr": 4326,
      "tro": 4327,
      "ahl": 4328,
      "ded": 4329,
      "must": 4330,
      "ds": 4331,
      "20": 4332,
      "Dies": 4333,
      "ces": 4334,
      "mehr": 4335,
      "day": 4336,
      "Kommission": 4337,
      "daß": 4338,
      "geb": 4339,
      "ely": 4340,
      "kl": 4341,
      "ings": 4342,
      "formation": 4343,
      "off": 4344,
      "Inter": 4345,
      "over": 4346,
      "ty": 4347,
      "they": 4348,
      "gem": 4349,
      "ities": 4350,
      "sta": 4351,
      "aber": 4352,
      "schen": 4353,
      "ual": 4354,
      "serv": 4355,
      "year": 4356,
      "fl": 4357,
      "immer": 4358,
      "like": 4359,
      "time": 4360,
      "gre": 4361,
      "sein": 4362,
      "only": 4363,
      "wurde": 4364,
      "ments": 4365,
      "fore": 4366,
      "cur": 4367,
      "anz": 4368,
      "os": 4369,
      "sup": 4370,
      "President": 4371,
      "ßen": 4372,
      "utz": 4373,
      "get": 4374,
      "Ma": 4375,
      "Auf": 4376,
      "wick": 4377,
      "Um": 4378,
      "hn": 4379,
      "gegen": 4380,
      "ks": 4381,
      "leich": 4382,
      "about": 4383,
      "Mar": 4384,
      "glie": 4385,
      "wenn": 4386,
      "10": 4387,
      "Präsident": 4388,
      "ef": 4389,
      "nah": 4390,
      "Reg": 4391,
      "system": 4392,
      "olle": 4393,
      "pres": 4394,
      "ack": 4395,
      "Ze": 4396,
      "cts": 4397,
      "olog": 4398,
      "kommen": 4399,
      "alt": 4400,
      "assen": 4401,
      "ild": 4402,
      "fo": 4403,
      "gesch": 4404,
      "fir": 4405,
      "ible": 4406,
      "stat": 4407,
      "zw": 4408,
      "bie": 4409,
      "ced": 4410,
      "pos": 4411,
      "tain": 4412,
      "nis": 4413,
      "sehr": 4414,
      "ious": 4415,
      "cil": 4416,
      "some": 4417,
      "velop": 4418,
      "müssen": 4419,
      "Fra": 4420,
      "need": 4421,
      "nehmen": 4422,
      "ws": 4423,
      "cy": 4424,
      "ms": 4425,
      "lament": 4426,
      "führ": 4427,
      "cons": 4428,
      "bis": 4429,
      "gu": 4430,
      "Mitglie": 4431,
      "erson": 4432,
      "ative": 4433,
      "ors": 4434,
      "ied": 4435,
      "vers": 4436,
      "dire": 4437,
      "king": 4438,
      "det": 4439,
      "these": 4440,
      "liament": 4441,
      "ität": 4442,
      "ause": 4443,
      "onder": 4444,
      "ütz": 4445,
      "sa": 4446,
      "Parlament": 4447,
      "ammen": 4448,
      "wen": 4449,
      "ld": 4450,
      "ket": 4451,
      "mat": 4452,
      "such": 4453,
      "tern": 4454,
      "Bes": 4455,
      "best": 4456,
      "ular": 4457,
      "Member": 4458,
      "Men": 4459,
      "import": 4460,
      "ustr": 4461,
      "ph": 4462,
      "eines": 4463,
      "ibt": 4464,
      "lung": 4465,
      "setz": 4466,
      "usammen": 4467,
      "atz": 4468,
      "dif": 4469,
      "),": 4470,
      "stit": 4471,
      "most": 4472,
      "weiter": 4473,
      "diesem": 4474,
      "develop": 4475,
      "iger": 4476,
      "int": 4477,
      "room": 4478,
      "igkeit": 4479,
      "dam": 4480,
      "ople": 4481,
      "well": 4482,
      "my": 4483,
      "ider": 4484,
      "ility": 4485,
      "igt": 4486,
      "ures": 4487,
      "Ne": 4488,
      "kte": 4489,
      "many": 4490,
      "vo": 4491,
      "ific": 4492,
      "report": 4493,
      "entr": 4494,
      "sub": 4495,
      "\",": 4496,
      "posit": 4497,
      "ihre": 4498,
      "ons": 4499,
      "low": 4500,
      "erg": 4501,
      "Europäischen": 4502,
      "änd": 4503,
      "mal": 4504,
      "unden": 4505,
      "halten": 4506,
      "gest": 4507,
      "into": 4508,
      "So": 4509,
      "tho": 4510,
      "iven": 4511,
      "sche": 4512,
      "Parliament": 4513,
      "were": 4514,
      "cle": 4515,
      "viel": 4516,
      "ateg": 4517,
      "lä": 4518,
      "wicht": 4519,
      "them": 4520,
      "oper": 4521,
      "les": 4522,
      "come": 4523,
      "ctive": 4524,
      "lic": 4525,
      "ient": 4526,
      "bas": 4527,
      "geben": 4528,
      "rel": 4529,
      "ating": 4530,
      "vis": 4531,
      "people": 4532,
      "mon": 4533,
      "uß": 4534,
      "Or": 4535,
      "Im": 4536,
      "wel": 4537,
      "ihr": 4538,
      "amen": 4539,
      "what": 4540,
      "pf": 4541,
      "ism": 4542,
      "hotel": 4543,
      "dition": 4544,
      "Jahr": 4545,
      "zeit": 4546,
      "just": 4547,
      "pub": 4548,
      "neu": 4549,
      "ices": 4550,
      "iden": 4551,
      "hel": 4552,
      "gl": 4553,
      "arbeit": 4554,
      "bal": 4555,
      "Ch": 4556,
      "Me": 4557,
      "stru": 4558,
      "As": 4559,
      "pen": 4560,
      "möchte": 4561,
      "Zeit": 4562,
      "bre": 4563,
      "international": 4564,
      "cause": 4565,
      "mach": 4566,
      "por": 4567,
      "inv": 4568,
      "loc": 4569,
      "conom": 4570,
      "isten": 4571,
      "techn": 4572,
      "Über": 4573,
      "than": 4574,
      "hol": 4575,
      "hier": 4576,
      "Mitglied": 4577,
      "high": 4578,
      "ement": 4579,
      "States": 4580,
      "ats": 4581,
      "Tr": 4582,
      "incl": 4583,
      "eing": 4584,
      "ail": 4585,
      "order": 4586,
      "ansp": 4587,
      "led": 4588,
      "Ger": 4589,
      "xt": 4590,
      "Coun": 4591,
      "itte": 4592,
      "first": 4593,
      "son": 4594,
      "dec": 4595,
      "uropä": 4596,
      "when": 4597,
      "Nach": 4598,
      "och": 4599,
      "countries": 4600,
      "ory": 4601,
      "his": 4602,
      "ert": 4603,
      "vom": 4604,
      "ler": 4605,
      "gleich": 4606,
      "ale": 4607,
      "fä": 4608,
      "qual": 4609,
      "roug": 4610,
      "stellen": 4611,
      "Con": 4612,
      "US": 4613,
      "Frau": 4614,
      "partic": 4615,
      "ieden": 4616,
      "oc": 4617,
      "read": 4618,
      "sicht": 4619,
      "Bericht": 4620,
      "ru": 4621,
      "Str": 4622,
      "ele": 4623,
      "ster": 4624,
      "program": 4625,
      "Menschen": 4626,
      "legen": 4627,
      "Council": 4628,
      "pa": 4629,
      "polic": 4630,
      "allen": 4631,
      "wend": 4632,
      "essen": 4633,
      "Land": 4634,
      "own": 4635,
      "cont": 4636,
      "sowie": 4637,
      "econom": 4638,
      "europä": 4639,
      "poss": 4640,
      "richt": 4641,
      "where": 4642,
      "gibt": 4643,
      "bu": 4644,
      "He": 4645,
      "support": 4646,
      "again": 4647,
      "gar": 4648,
      "zwischen": 4649,
      "enz": 4650,
      "etzt": 4651,
      "gew": 4652,
      "oft": 4653,
      "Comm": 4654,
      "here": 4655,
      "änder": 4656,
      "Fre": 4657,
      "make": 4658,
      "stütz": 4659,
      "important": 4660,
      "zwe": 4661,
      "dieses": 4662,
      "inn": 4663,
      "deut": 4664,
      "press": 4665,
      "ween": 4666,
      "agre": 4667,
      "erv": 4668,
      "cour": 4669,
      "ence": 4670,
      "vent": 4671,
      "arge": 4672,
      "tschaft": 4673,
      "besonder": 4674,
      "hör": 4675,
      "halb": 4676,
      "Pol": 4677,
      "bed": 4678,
      "ließ": 4679,
      "gh": 4680,
      "thing": 4681,
      "between": 4682,
      "ights": 4683,
      "fact": 4684,
      "take": 4685,
      "quest": 4686,
      "fort": 4687,
      "istr": 4688,
      "bin": 4689,
      "set": 4690,
      "main": 4691,
      "halt": 4692,
      "ives": 4693,
      "propos": 4694,
      "möglich": 4695,
      "Entwick": 4696,
      "issen": 4697,
      "Zu": 4698,
      "oh": 4699,
      "ware": 4700,
      "because": 4701,
      "Mitgliedsta": 4702,
      "ci": 4703,
      "ural": 4704,
      "arr": 4705,
      "igung": 4706,
      "world": 4707,
      "proble": 4708,
      "fra": 4709,
      "ject": 4710,
      "see": 4711,
      "forder": 4712,
      "Fl": 4713,
      "Bere": 4714,
      "ister": 4715,
      "information": 4716,
      "199": 4717,
      "bst": 4718,
      "ital": 4719,
      "No": 4720,
      "emp": 4721,
      "line": 4722,
      "ict": 4723,
      "muss": 4724,
      "Produ": 4725,
      "Art": 4726,
      "nat": 4727,
      "two": 4728,
      "äch": 4729,
      "organ": 4730,
      "zial": 4731,
      "tem": 4732,
      "ous": 4733,
      "cted": 4734,
      "ßer": 4735,
      "Min": 4736,
      "zie": 4737,
      "eng": 4738,
      "good": 4739,
      "els": 4740,
      "made": 4741,
      "unsere": 4742,
      "same": 4743,
      "keine": 4744,
      "Br": 4745,
      "trag": 4746,
      "wür": 4747,
      "ko": 4748,
      "wa": 4749,
      "ionen": 4750,
      "bl": 4751,
      "Ex": 4752,
      "versch": 4753,
      "Ihre": 4754,
      "sc": 4755,
      "aut": 4756,
      "uation": 4757,
      "right": 4758,
      "lang": 4759,
      "finden": 4760,
      "Fin": 4761,
      "had": 4762,
      "Ihnen": 4763,
      "even": 4764,
      "hä": 4765,
      "every": 4766,
      "dit": 4767,
      "Arbeit": 4768,
      "voll": 4769,
      "Grund": 4770,
      "years": 4771,
      "öff": 4772,
      "Mitgliedstaaten": 4773,
      "throug": 4774,
      "issu": 4775,
      "ional": 4776,
      "If": 4777,
      "real": 4778,
      "anderen": 4779,
      "akt": 4780,
      "uring": 4781,
      "amil": 4782,
      "jed": 4783,
      "Europa": 4784,
      "urn": 4785,
      "ium": 4786,
      "bring": 4787,
      "ys": 4788,
      "resp": 4789,
      "bus": 4790,
      "ße": 4791,
      "num": 4792,
      "rat": 4793,
      "being": 4794,
      "del": 4795,
      "then": 4796,
      "unkt": 4797,
      "ting": 4798,
      "med": 4799,
      "ink": 4800,
      "Mon": 4801,
      "icher": 4802,
      "Zusammen": 4803,
      "15": 4804,
      "those": 4805,
      "ischer": 4806,
      "cept": 4807,
      "Kr": 4808,
      "Pl": 4809,
      "lag": 4810,
      "To": 4811,
      "jo": 4812,
      "rest": 4813,
      "public": 4814,
      "bess": 4815,
      "clear": 4816,
      "view": 4817,
      "sicher": 4818,
      "less": 4819,
      "ps": 4820,
      "letz": 4821,
      "Proble": 4822,
      "ständ": 4823,
      "weise": 4824,
      "Rat": 4825,
      "keiten": 4826,
      "Sta": 4827,
      "mittel": 4828,
      "wever": 4829,
      "person": 4830,
      "chä": 4831,
      "Bo": 4832,
      "may": 4833,
      "gra": 4834,
      "schließ": 4835,
      "prom": 4836,
      "cer": 4837,
      "unity": 4838,
      "policy": 4839,
      "Wenn": 4840,
      "fall": 4841,
      "\",\"": 4842,
      "...": 4843,
      "att": 4844,
      "brauch": 4845,
      "chten": 4846,
      "vir": 4847,
      "äm": 4848,
      "Ro": 4849,
      "währ": 4850,
      "gemein": 4851,
      "dann": 4852,
      "ited": 4853,
      "isen": 4854,
      "Vorsch": 4855,
      "welt": 4856,
      "los": 4857,
      "uman": 4858,
      "spre": 4859,
      "market": 4860,
      "know": 4861,
      "ument": 4862,
      "Haus": 4863,
      "gener": 4864,
      "zahl": 4865,
      "isation": 4866,
      "ös": 4867,
      "effe": 4868,
      "ven": 4869,
      "site": 4870,
      "find": 4871,
      "star": 4872,
      "belie": 4873,
      "There": 4874,
      "zeich": 4875,
      "On": 4876,
      "Bereich": 4877,
      "nahmen": 4878,
      "Des": 4879,
      "last": 4880,
      "play": 4881,
      "weil": 4882,
      "sure": 4883,
      "acht": 4884,
      "present": 4885,
      "wieder": 4886,
      "place": 4887,
      "differ": 4888,
      "lim": 4889,
      "stehen": 4890,
      "particular": 4891,
      "Gro": 4892,
      "itik": 4893,
      "12": 4894,
      "fahren": 4895,
      "diesen": 4896,
      "err": 4897,
      "offen": 4898,
      "damit": 4899,
      "Gen": 4900,
      "beste": 4901,
      "lage": 4902,
      "wohl": 4903,
      "nung": 4904,
      "after": 4905,
      "process": 4906,
      "vern": 4907,
      "used": 4908,
      "ior": 4909,
      "Welt": 4910,
      "wurden": 4911,
      "innen": 4912,
      "di": 4913,
      "fach": 4914,
      "30": 4915,
      "Ja": 4916,
      "bel": 4917,
      "Po": 4918,
      "ters": 4919,
      "fun": 4920,
      "rei": 4921,
      "val": 4922,
      "how": 4923,
      "aur": 4924,
      "ough": 4925,
      "possible": 4926,
      "elle": 4927,
      "Ko": 4928,
      "iness": 4929,
      "aum": 4930,
      "adt": 4931,
      "ade": 4932,
      "18": 4933,
      "spr": 4934,
      "air": 4935,
      "conc": 4936,
      "say": 4937,
      "requ": 4938,
      "Hand": 4939,
      "cor": 4940,
      "Wo": 4941,
      "entlich": 4942,
      "You": 4943,
      "Ihr": 4944,
      "deb": 4945,
      "area": 4946,
      "Diese": 4947,
      "que": 4948,
      "gehen": 4949,
      "chts": 4950,
      "ändern": 4951,
      "trä": 4952,
      "rag": 4953,
      "ants": 4954,
      "kr": 4955,
      "stitution": 4956,
      "reichen": 4957,
      "aller": 4958,
      "beg": 4959,
      "sur": 4960,
      "unserer": 4961,
      "rent": 4962,
      "trans": 4963,
      "habe": 4964,
      "sm": 4965,
      "comple": 4966,
      "far": 4967,
      "len": 4968,
      "Gem": 4969,
      "trol": 4970,
      "economic": 4971,
      "Fe": 4972,
      "wort": 4973,
      "wirtschaft": 4974,
      "einz": 4975,
      "ace": 4976,
      "rif": 4977,
      "ix": 4978,
      "Was": 4979,
      "through": 4980,
      "itt": 4981,
      "sondern": 4982,
      "Bar": 4983,
      "wert": 4984,
      "000": 4985,
      "point": 4986,
      "sim": 4987,
      "lau": 4988,
      "fest": 4989,
      "Bür": 4990,
      "alth": 4991,
      "angen": 4992,
      "uer": 4993,
      "ow": 4994,
      "seine": 4995,
      "ga": 4996,
      "50": 4997,
      "prote": 4998,
      "wirk": 4999,
      "jedoch": 5000,
      "kle": 5001,
      "put": 5002,
      "ellen": 5003,
      "ince": 5004,
      "Europäische": 5005,
      "exper": 5006,
      "var": 5007,
      "uro": 5008,
      "incre": 5009,
      "tegr": 5010,
      "old": 5011,
      "industr": 5012,
      "ply": 5013,
      "human": 5014,
      "fahr": 5015,
      "Bet": 5016,
      "concern": 5017,
      "eln": 5018,
      "great": 5019,
      "erst": 5020,
      "ausge": 5021,
      "?,": 5022,
      "hist": 5023,
      "führen": 5024,
      "Information": 5025,
      "tens": 5026,
      "Mo": 5027,
      "access": 5028,
      "System": 5029,
      "At": 5030,
      "gestel": 5031,
      "plic": 5032,
      "Sicher": 5033,
      "iti": 5034,
      "change": 5035,
      "ziel": 5036,
      "lobal": 5037,
      "contin": 5038,
      "neue": 5039,
      "prof": 5040,
      "Am": 5041,
      "hö": 5042,
      "grund": 5043,
      "ards": 5044,
      "lagen": 5045,
      "could": 5046,
      "ker": 5047,
      "political": 5048,
      "transp": 5049,
      "heute": 5050,
      "ata": 5051,
      "Program": 5052,
      "ages": 5053,
      "help": 5054,
      "provide": 5055,
      "offer": 5056,
      "want": 5057,
      "Ind": 5058,
      "Man": 5059,
      "lassen": 5060,
      "number": 5061,
      "Unternehmen": 5062,
      "back": 5063,
      "level": 5064,
      "Pre": 5065,
      "Än": 5066,
      "fund": 5067,
      "development": 5068,
      "Teil": 5069,
      "isp": 5070,
      "cap": 5071,
      "Res": 5072,
      "ude": 5073,
      "Web": 5074,
      "appro": 5075,
      "does": 5076,
      "lish": 5077,
      "rights": 5078,
      "within": 5079,
      "pra": 5080,
      "ready": 5081,
      "gung": 5082,
      "raft": 5083,
      "kom": 5084,
      "ierte": 5085,
      "satz": 5086,
      "look": 5087,
      "text": 5088,
      "ßnahmen": 5089,
      "itz": 5090,
      "exam": 5091,
      "avail": 5092,
      "ohne": 5093,
      "Änder": 5094,
      "ganz": 5095,
      "loy": 5096,
      "open": 5097,
      "ähr": 5098,
      "sk": 5099,
      "bereits": 5100,
      "All": 5101,
      "sign": 5102,
      "ability": 5103,
      "selbst": 5104,
      "tal": 5105,
      "much": 5106,
      "Richt": 5107,
      "ihrer": 5108,
      "both": 5109,
      "against": 5110,
      "mich": 5111,
      "ics": 5112,
      "zug": 5113,
      "govern": 5114,
      "wichtig": 5115,
      "fle": 5116,
      "itä": 5117,
      "country": 5118,
      "bur": 5119,
      "free": 5120,
      "ree": 5121,
      "pect": 5122,
      "large": 5123,
      "ath": 5124,
      "down": 5125,
      "Wer": 5126,
      "therefore": 5127,
      "icult": 5128,
      "Wie": 5129,
      "utions": 5130,
      "Gemein": 5131,
      "Entwicklung": 5132,
      "neuen": 5133,
      "ests": 5134,
      "europäischen": 5135,
      "führt": 5136,
      "ved": 5137,
      "sollte": 5138,
      "Leben": 5139,
      "kun": 5140,
      "clo": 5141,
      "ierten": 5142,
      "viron": 5143,
      "unt": 5144,
      "Mö": 5145,
      "ustom": 5146,
      "Jahren": 5147,
      "group": 5148,
      "too": 5149,
      "ator": 5150,
      "ulation": 5151,
      "Daten": 5152,
      "ER": 5153,
      "fur": 5154,
      "einfach": 5155,
      "finan": 5156,
      "priv": 5157,
      "still": 5158,
      "hlen": 5159,
      "eigen": 5160,
      "ret": 5161,
      "andere": 5162,
      "denen": 5163,
      "oftware": 5164,
      "operation": 5165,
      "liegt": 5166,
      "Part": 5167,
      "long": 5168,
      "eld": 5169,
      "une": 5170,
      "Is": 5171,
      "zwei": 5172,
      "fil": 5173,
      "position": 5174,
      "Kom": 5175,
      "11": 5176,
      "grö": 5177,
      "ätz": 5178,
      "kehr": 5179,
      "ren": 5180,
      "gent": 5181,
      "agement": 5182,
      "üh": 5183,
      "cord": 5184,
      "different": 5185,
      "quality": 5186,
      "without": 5187,
      "key": 5188,
      "Ste": 5189,
      "ittee": 5190,
      "schn": 5191,
      "social": 5192,
      "spec": 5193,
      "ctor": 5194,
      "consider": 5195,
      "Frage": 5196,
      "meas": 5197,
      "ask": 5198,
      "vironment": 5199,
      "inner": 5200,
      "ux": 5201,
      "seit": 5202,
      "ctions": 5203,
      "services": 5204,
      "inst": 5205,
      "iver": 5206,
      "woll": 5207,
      "immt": 5208,
      "hop": 5209,
      "lif": 5210,
      "verschieden": 5211,
      "sollten": 5212,
      "sehen": 5213,
      "service": 5214,
      "hän": 5215,
      "machen": 5216,
      "bietet": 5217,
      "Bürger": 5218,
      "ep": 5219,
      "uf": 5220,
      "Chin": 5221,
      "ti": 5222,
      "Person": 5223,
      "schafts": 5224,
      "Wor": 5225,
      "Da": 5226,
      "nahme": 5227,
      "komm": 5228,
      "car": 5229,
      "power": 5230,
      "ways": 5231,
      "zeug": 5232,
      "licher": 5233,
      "unterstütz": 5234,
      "fast": 5235,
      "ision": 5236,
      "cit": 5237,
      "ize": 5238,
      "bil": 5239,
      "ists": 5240,
      "arbe": 5241,
      "available": 5242,
      "kes": 5243,
      "design": 5244,
      "Mittel": 5245,
      "fut": 5246,
      "wes": 5247,
      "gend": 5248,
      "Bed": 5249,
      "ivid": 5250,
      "kten": 5251,
      "let": 5252,
      "atur": 5253,
      "Stand": 5254,
      "alten": 5255,
      "pass": 5256,
      "ime": 5257,
      "require": 5258,
      "inc": 5259,
      "ichte": 5260,
      "ness": 5261,
      "rooms": 5262,
      "member": 5263,
      "met": 5264,
      "Tre": 5265,
      "geht": 5266,
      "nor": 5267,
      "az": 5268,
      "business": 5269,
      "mir": 5270,
      "tion": 5271,
      "ised": 5272,
      "Internet": 5273,
      "fern": 5274,
      "sprechen": 5275,
      "Dem": 5276,
      "besondere": 5277,
      "eben": 5278,
      "ibility": 5279,
      "statt": 5280,
      "ves": 5281,
      "certain": 5282,
      "thor": 5283,
      "bt": 5284,
      "llen": 5285,
      "luss": 5286,
      "course": 5287,
      "EN": 5288,
      "viele": 5289,
      "findet": 5290,
      "ispiel": 5291,
      "16": 5292,
      "current": 5293,
      "besch": 5294,
      "amer": 5295,
      "dazu": 5296,
      "custom": 5297,
      "gut": 5298,
      "ience": 5299,
      "uten": 5300,
      "ffic": 5301,
      "alen": 5302,
      "before": 5303,
      "uck": 5304,
      "bau": 5305,
      "Kommiss": 5306,
      "chan": 5307,
      "enter": 5308,
      "omen": 5309,
      "already": 5310,
      "Arbe": 5311,
      "believe": 5312,
      "Möglich": 5313,
      "future": 5314,
      "ienst": 5315,
      "iß": 5316,
      "van": 5317,
      "stellung": 5318,
      "arch": 5319,
      "kur": 5320,
      "ktur": 5321,
      "ond": 5322,
      "seiner": 5323,
      "red": 5324,
      "besser": 5325,
      "La": 5326,
      "strateg": 5327,
      "special": 5328,
      "gestellt": 5329,
      "Med": 5330,
      "denn": 5331,
      "reas": 5332,
      "Ziel": 5333,
      "aff": 5334,
      "ving": 5335,
      "Tra": 5336,
      "nam": 5337,
      "global": 5338,
      "cing": 5339,
      "But": 5340,
      "har": 5341,
      "employ": 5342,
      "recht": 5343,
      "technolog": 5344,
      "today": 5345,
      "respons": 5346,
      "]]": 5347,
      "That": 5348,
      "14": 5349,
      "!,": 5350,
      "ides": 5351,
      "könn": 5352,
      "darauf": 5353,
      "Com": 5354,
      "entwick": 5355,
      "products": 5356,
      "case": 5357,
      "jor": 5358,
      "Af": 5359,
      "jetzt": 5360,
      "[[": 5361,
      "ahmen": 5362,
      "think": 5363,
      "2009": 5364,
      "ismus": 5365,
      "mb": 5366,
      "rap": 5367,
      "ont": 5368,
      "environment": 5369,
      "disc": 5370,
      "betr": 5371,
      "redu": 5372,
      "cond": 5373,
      "char": 5374,
      "Rahmen": 5375,
      "schon": 5376,
      "ically": 5377,
      "data": 5378,
      "zentr": 5379,
      "klär": 5380,
      "ahre": 5381,
      "17": 5382,
      "mor": 5383,
      "Lage": 5384,
      "suc": 5385,
      "Maßnahmen": 5386,
      "Serv": 5387,
      "agen": 5388,
      "cannot": 5389,
      "Energ": 5390,
      "dy": 5391,
      "integr": 5392,
      "nisse": 5393,
      "ritt": 5394,
      "Informationen": 5395,
      "city": 5396,
      "plan": 5397,
      "curity": 5398,
      "sor": 5399,
      "na": 5400,
      "bieten": 5401,
      "Kin": 5402,
      "öl": 5403,
      "Finanz": 5404,
      "amp": 5405,
      "folg": 5406,
      "zus": 5407,
      "Qu": 5408,
      "cho": 5409,
      "falls": 5410,
      "ica": 5411,
      "imin": 5412,
      "Amer": 5413,
      "individ": 5414,
      "aterial": 5415,
      "13": 5416,
      "IN": 5417,
      "ward": 5418,
      "follow": 5419,
      "mus": 5420,
      "isk": 5421,
      "isl": 5422,
      "Fall": 5423,
      "saf": 5424,
      "olution": 5425,
      "uni": 5426,
      "uding": 5427,
      "offers": 5428,
      "activ": 5429,
      "ues": 5430,
      "invest": 5431,
      "ately": 5432,
      "zusammen": 5433,
      "question": 5434,
      "col": 5435,
      "einige": 5436,
      "imple": 5437,
      "lossen": 5438,
      "web": 5439,
      "exp": 5440,
      "anken": 5441,
      "sam": 5442,
      "small": 5443,
      "dafür": 5444,
      "wissen": 5445,
      "iving": 5446,
      "Stadt": 5447,
      "Zimmer": 5448,
      "fair": 5449,
      "leist": 5450,
      "gesam": 5451,
      "Bl": 5452,
      "situation": 5453,
      "okrat": 5454,
      "bereit": 5455,
      "And": 5456,
      "famil": 5457,
      "cell": 5458,
      "ante": 5459,
      "meet": 5460,
      "Russ": 5461,
      "Commissioner": 5462,
      "Spe": 5463,
      "Herrn": 5464,
      "legal": 5465,
      "iter": 5466,
      "ilt": 5467,
      "Euro": 5468,
      "asse": 5469,
      "energ": 5470,
      "cas": 5471,
      "fully": 5472,
      "necess": 5473,
      "Aussch": 5474,
      "direct": 5475,
      "Pal": 5476,
      "rie": 5477,
      "law": 5478,
      "nov": 5479,
      "ca": 5480,
      "enth": 5481,
      "liegen": 5482,
      "spra": 5483,
      "Em": 5484,
      "issue": 5485,
      "gress": 5486,
      "nun": 5487,
      "during": 5488,
      "iff": 5489,
      "citiz": 5490,
      "zurück": 5491,
      "pay": 5492,
      "waren": 5493,
      "äß": 5494,
      "hof": 5495,
      "ually": 5496,
      "bind": 5497,
      "financial": 5498,
      "ihren": 5499,
      "Nor": 5500,
      "inen": 5501,
      "Ange": 5502,
      "heiten": 5503,
      "allem": 5504,
      "equ": 5505,
      "bs": 5506,
      "Jahre": 5507,
      "setzung": 5508,
      "said": 5509,
      "ahn": 5510,
      "cost": 5511,
      "kunft": 5512,
      "modern": 5513,
      "begr": 5514,
      "top": 5515,
      "bro": 5516,
      "Ad": 5517,
      "side": 5518,
      "regard": 5519,
      "ron": 5520,
      "ship": 5521,
      "ound": 5522,
      "achie": 5523,
      "problem": 5524,
      "auto": 5525,
      "debate": 5526,
      "means": 5527,
      "including": 5528,
      "AN": 5529,
      "ily": 5530,
      "Verein": 5531,
      "aupt": 5532,
      "example": 5533,
      "wach": 5534,
      "25": 5535,
      "major": 5536,
      "proposal": 5537,
      "applic": 5538,
      "folgen": 5539,
      ").\"": 5540,
      "stellt": 5541,
      "Für": 5542,
      "Rechts": 5543,
      "Arbeits": 5544,
      "cken": 5545,
      "steht": 5546,
      "meine": 5547,
      "count": 5548,
      "worden": 5549,
      "wal": 5550,
      "heits": 5551,
      "nie": 5552,
      "Kommissar": 5553,
      "eas": 5554,
      "since": 5555,
      "cult": 5556,
      "Best": 5557,
      "ows": 5558,
      "wollen": 5559,
      "Ur": 5560,
      "punkt": 5561,
      "stay": 5562,
      "ett": 5563,
      "Politik": 5564,
      "Su": 5565,
      "Eine": 5566,
      "Our": 5567,
      "udget": 5568,
      "illion": 5569,
      "verfü": 5570,
      "call": 5571,
      "fte": 5572,
      "würde": 5573,
      "iele": 5574,
      "24": 5575,
      "ized": 5576,
      "However": 5577,
      "stre": 5578,
      "action": 5579,
      "using": 5580,
      "With": 5581,
      "abil": 5582,
      "unseren": 5583,
      "based": 5584,
      "antwort": 5585,
      "sagen": 5586,
      "Lin": 5587,
      "struct": 5588,
      "utes": 5589,
      "ationen": 5590,
      "author": 5591,
      "taken": 5592,
      "oren": 5593,
      "build": 5594,
      "pp": 5595,
      "kün": 5596,
      "bewer": 5597,
      "each": 5598,
      "ktionen": 5599,
      "compet": 5600,
      "adop": 5601,
      "ying": 5602,
      "isierung": 5603,
      "tour": 5604,
      "?\"": 5605,
      "dep": 5606,
      "allow": 5607,
      "vi": 5608,
      "immung": 5609,
      "legt": 5610,
      "ES": 5611,
      "spiel": 5612,
      "leben": 5613,
      "Proje": 5614,
      "IT": 5615,
      "Committee": 5616,
      "bringen": 5617,
      "Fir": 5618,
      "colle": 5619,
      "AT": 5620,
      "während": 5621,
      "schein": 5622,
      "sozial": 5623,
      "Parlaments": 5624,
      "control": 5625,
      "stär": 5626,
      "Kolle": 5627,
      "tes": 5628,
      "Länder": 5629,
      "common": 5630,
      "three": 5631,
      "amend": 5632,
      "page": 5633,
      "Ser": 5634,
      "histor": 5635,
      "ichter": 5636,
      "hält": 5637,
      "etwas": 5638,
      "Techn": 5639,
      "ffen": 5640,
      "tun": 5641,
      "conta": 5642,
      "EC": 5643,
      "Recht": 5644,
      "ird": 5645,
      "Lös": 5646,
      "trib": 5647,
      "ential": 5648,
      "give": 5649,
      "aurant": 5650,
      "Deut": 5651,
      "ordin": 5652,
      "ablish": 5653,
      "next": 5654,
      "doch": 5655,
      ").": 5656,
      "areas": 5657,
      "Vorschlag": 5658,
      "ensure": 5659,
      "dra": 5660,
      "UN": 5661,
      "measures": 5662,
      "success": 5663,
      "IS": 5664,
      "specific": 5665,
      "rece": 5666,
      "lungs": 5667,
      "Und": 5668,
      "erhalten": 5669,
      "ersten": 5670,
      "lik": 5671,
      "Geschä": 5672,
      "ordnung": 5673,
      "company": 5674,
      "aren": 5675,
      "Mill": 5676,
      "few": 5677,
      "Zwe": 5678,
      "energy": 5679,
      "cover": 5680,
      "ining": 5681,
      "sy": 5682,
      "schrif": 5683,
      "log": 5684,
      "Bild": 5685,
      "result": 5686,
      "unde": 5687,
      "linie": 5688,
      "ja": 5689,
      "scheid": 5690,
      "ines": 5691,
      "bank": 5692,
      "agreement": 5693,
      "2010": 5694,
      "Unterstütz": 5695,
      "gangen": 5696,
      "pop": 5697,
      "thank": 5698,
      "arbeiten": 5699,
      "lungen": 5700,
      "discuss": 5701,
      "establish": 5702,
      "while": 5703,
      "book": 5704,
      "Durch": 5705,
      "ased": 5706,
      "insbesondere": 5707,
      "ürlich": 5708,
      "further": 5709,
      "fts": 5710,
      "necessary": 5711,
      "Rest": 5712,
      "setzen": 5713,
      "Qual": 5714,
      "citizens": 5715,
      "earch": 5716,
      "life": 5717,
      "Ital": 5718,
      "dig": 5719,
      "schaften": 5720,
      "China": 5721,
      "ditions": 5722,
      "hmen": 5723,
      "San": 5724,
      "Bei": 5725,
      "pat": 5726,
      "gang": 5727,
      "mil": 5728,
      "kauf": 5729,
      "Spiel": 5730,
      "grow": 5731,
      "gehör": 5732,
      "addition": 5733,
      "atic": 5734,
      "igin": 5735,
      "half": 5736,
      "cher": 5737,
      "außer": 5738,
      "Markt": 5739,
      "iet": 5740,
      "einmal": 5741,
      "vention": 5742,
      "commun": 5743,
      "Änderungs": 5744,
      "Verfü": 5745,
      "glichen": 5746,
      "2008": 5747,
      "wish": 5748,
      "...\"": 5749,
      "ton": 5750,
      "gesetzt": 5751,
      "Group": 5752,
      "ache": 5753,
      "ling": 5754,
      "fiel": 5755,
      "writ": 5756,
      "whe": 5757,
      "Mein": 5758,
      "sing": 5759,
      "pack": 5760,
      "umf": 5761,
      "lead": 5762,
      "security": 5763,
      "ilfe": 5764,
      "uc": 5765,
      "utzen": 5766,
      "incip": 5767,
      "ichten": 5768,
      "light": 5769,
      "bot": 5770,
      "alled": 5771,
      "Form": 5772,
      "letzten": 5773,
      "beim": 5774,
      "größ": 5775,
      "bit": 5776,
      "problems": 5777,
      "shall": 5778,
      "bede": 5779,
      "Unterstützung": 5780,
      "ning": 5781,
      "verwen": 5782,
      "opport": 5783,
      "tragen": 5784,
      "ules": 5785,
      "Fol": 5786,
      "Dar": 5787,
      "miss": 5788,
      "lay": 5789,
      "Sit": 5790,
      "Gesch": 5791,
      "ane": 5792,
      "ina": 5793,
      "legisl": 5794,
      "did": 5795,
      "zo": 5796,
      "Namen": 5797,
      "jen": 5798,
      "start": 5799,
      "100": 5800,
      "ktiv": 5801,
      "defin": 5802,
      "Zusammenarbeit": 5803,
      "walt": 5804,
      "pract": 5805,
      "Bel": 5806,
      "health": 5807,
      "vote": 5808,
      "budget": 5809,
      "given": 5810,
      "ext": 5811,
      "Tag": 5812,
      "genommen": 5813,
      "umen": 5814,
      "inform": 5815,
      "cially": 5816,
      "Dienst": 5817,
      "zess": 5818,
      "drei": 5819,
      "agt": 5820,
      "sequ": 5821,
      "princip": 5822,
      "km": 5823,
      "CO": 5824,
      "Ländern": 5825,
      "esse": 5826,
      "Mad": 5827,
      "ged": 5828,
      "porte": 5829,
      "opp": 5830,
      "Kunden": 5831,
      "ements": 5832,
      "tradition": 5833,
      "bat": 5834,
      "dress": 5835,
      "hope": 5836,
      "entlichen": 5837,
      "ises": 5838,
      "Gu": 5839,
      "ellschaft": 5840,
      "invol": 5841,
      "Stra": 5842,
      "flo": 5843,
      "igten": 5844,
      "systems": 5845,
      "Sicherheit": 5846,
      "Mal": 5847,
      "leicht": 5848,
      "Mus": 5849,
      "gn": 5850,
      "rele": 5851,
      "Umwelt": 5852,
      "Flug": 5853,
      "complete": 5854,
      "spl": 5855,
      "Ben": 5856,
      "ding": 5857,
      "wards": 5858,
      "why": 5859,
      "sour": 5860,
      "Organ": 5861,
      "region": 5862,
      "however": 5863,
      "self": 5864,
      "located": 5865,
      "programm": 5866,
      "zept": 5867,
      "iety": 5868,
      "Problem": 5869,
      "markt": 5870,
      "Cl": 5871,
      "zü": 5872,
      "refer": 5873,
      "water": 5874,
      "einge": 5875,
      "cooperation": 5876,
      "besteht": 5877,
      "Ob": 5878,
      "treten": 5879,
      "örder": 5880,
      "ross": 5881,
      "ising": 5882,
      "conne": 5883,
      "ww": 5884,
      "stra": 5885,
      "anal": 5886,
      "Hin": 5887,
      "pur": 5888,
      "gether": 5889,
      "Vol": 5890,
      "sum": 5891,
      "deren": 5892,
      "Gar": 5893,
      "asch": 5894,
      "protection": 5895,
      "führung": 5896,
      "stim": 5897,
      "implement": 5898,
      "full": 5899,
      "ierungs": 5900,
      "licht": 5901,
      "ively": 5902,
      "compan": 5903,
      "öt": 5904,
      "Kl": 5905,
      "ified": 5906,
      "uge": 5907,
      "Bus": 5908,
      "streng": 5909,
      "AR": 5910,
      "ildr": 5911,
      "Sol": 5912,
      "Rom": 5913,
      "itäten": 5914,
      "care": 5915,
      "always": 5916,
      "joy": 5917,
      "Stel": 5918,
      "Regierung": 5919,
      "glau": 5920,
      "needs": 5921,
      "working": 5922,
      "II": 5923,
      "views": 5924,
      "gaben": 5925,
      "appe": 5926,
      "lemen": 5927,
      "Fragen": 5928,
      "They": 5929,
      "Kar": 5930,
      "frien": 5931,
      "wär": 5932,
      "state": 5933,
      "seinen": 5934,
      "Ir": 5935,
      "government": 5936,
      "House": 5937,
      "wendung": 5938,
      "reach": 5939,
      "mult": 5940,
      "bekann": 5941,
      "Beit": 5942,
      "eig": 5943,
      "bereich": 5944,
      "United": 5945,
      "ildren": 5946,
      "?\",\"": 5947,
      "zieh": 5948,
      "uter": 5949,
      "production": 5950,
      "stud": 5951,
      "ader": 5952,
      "Auto": 5953,
      "welche": 5954,
      "rechte": 5955,
      "!\"": 5956,
      "better": 5957,
      "dom": 5958,
      "centr": 5959,
      "interest": 5960,
      "Service": 5961,
      "elf": 5962,
      "diff": 5963,
      "häng": 5964,
      "handelt": 5965,
      "nal": 5966,
      "Energie": 5967,
      "Seite": 5968,
      "poin": 5969,
      "transport": 5970,
      "wäre": 5971,
      "Community": 5972,
      "USA": 5973,
      "kosten": 5974,
      "non": 5975,
      "ätze": 5976,
      "cks": 5977,
      "break": 5978,
      "hang": 5979,
      "visit": 5980,
      "40": 5981,
      "dabei": 5982,
      "ivil": 5983,
      "initi": 5984,
      "crit": 5985,
      "second": 5986,
      "Besch": 5987,
      "hy": 5988,
      "wide": 5989,
      "spol": 5990,
      "Kollegen": 5991,
      "Vertrag": 5992,
      "Port": 5993,
      "genau": 5994,
      "found": 5995,
      "ches": 5996,
      "erk": 5997,
      "around": 5998,
      "consum": 5999,
      "2007": 6000,
      "Not": 6001,
      "druck": 6002,
      "respect": 6003,
      "load": 6004,
      "ash": 6005,
      "ialog": 6006,
      "Famil": 6007,
      "ek": 6008,
      "What": 6009,
      "Chr": 6010,
      "ury": 6011,
      "making": 6012,
      "iste": 6013,
      "großen": 6014,
      "blick": 6015,
      "together": 6016,
      "muß": 6017,
      "him": 6018,
      "hip": 6019,
      "zeigt": 6020,
      "große": 6021,
      "oth": 6022,
      "Gener": 6023,
      "Fraktion": 6024,
      "prü": 6025,
      "fect": 6026,
      "programme": 6027,
      "Bedeut": 6028,
      "gabe": 6029,
      "ingungen": 6030,
      "accept": 6031,
      "term": 6032,
      "dist": 6033,
      "politischen": 6034,
      "Kinder": 6035,
      "rad": 6036,
      "German": 6037,
      "sever": 6038,
      "Programm": 6039,
      "rän": 6040,
      "2000": 6041,
      "row": 6042,
      "lad": 6043,
      "hoto": 6044,
      "chäft": 6045,
      "burg": 6046,
      "AS": 6047,
      "date": 6048,
      "recent": 6049,
      "Mrs": 6050,
      "porteur": 6051,
      "Entscheid": 6052,
      "Regel": 6053,
      "deal": 6054,
      "terms": 6055,
      "verb": 6056,
      "Eben": 6057,
      "Verfügung": 6058,
      "''": 6059,
      "When": 6060,
      "schw": 6061,
      "International": 6062,
      "Air": 6063,
      "short": 6064,
      "trade": 6065,
      "profess": 6066,
      "ichterstat": 6067,
      "clus": 6068,
      "tax": 6069,
      "Hier": 6070,
      "Bedeutung": 6071,
      "Ergeb": 6072,
      "uft": 6073,
      "carr": 6074,
      "Tur": 6075,
      "wirklich": 6076,
      "centre": 6077,
      "ums": 6078,
      "near": 6079,
      "iges": 6080,
      "whether": 6081,
      "cal": 6082,
      "exist": 6083,
      "become": 6084,
      "proper": 6085,
      "particularly": 6086,
      "going": 6087,
      "Lebens": 6088,
      "proje": 6089,
      "account": 6090,
      "kets": 6091,
      "These": 6092,
      "yo": 6093,
      "assung": 6094,
      "management": 6095,
      "deta": 6096,
      "local": 6097,
      "uments": 6098,
      "jeder": 6099,
      "extre": 6100,
      "enten": 6101,
      "Schutz": 6102,
      "Möglichkeit": 6103,
      "material": 6104,
      "60": 6105,
      "-,": 6106,
      "ikan": 6107,
      "fäh": 6108,
      "lauf": 6109,
      "Sk": 6110,
      "Fo": 6111,
      "ose": 6112,
      "basis": 6113,
      "pers": 6114,
      "Aber": 6115,
      "\"\",": 6116,
      "inclu": 6117,
      "difficult": 6118,
      "another": 6119,
      "Li": 6120,
      "cel": 6121,
      "Staaten": 6122,
      "role": 6123,
      "lack": 6124,
      "bild": 6125,
      "ende": 6126,
      "children": 6127,
      "ention": 6128,
      "Per": 6129,
      "schließlich": 6130,
      "Zug": 6131,
      "research": 6132,
      "town": 6133,
      "ars": 6134,
      "wand": 6135,
      "personal": 6136,
      "!\",\"": 6137,
      "Fun": 6138,
      "kommt": 6139,
      "beach": 6140,
      "rapporteur": 6141,
      "mut": 6142,
      "Auch": 6143,
      "issues": 6144,
      "express": 6145,
      "guar": 6146,
      "anc": 6147,
      "alles": 6148,
      "notwend": 6149,
      "bestimm": 6150,
      "Lie": 6151,
      "conditions": 6152,
      "ocr": 6153,
      "Beispiel": 6154,
      "reason": 6155,
      "träge": 6156,
      "80": 6157,
      "iben": 6158,
      "ultur": 6159,
      "reco": 6160,
      "xim": 6161,
      "vious": 6162,
      "contrib": 6163,
      "Zahl": 6164,
      "perio": 6165,
      "typ": 6166,
      "org": 6167,
      "Als": 6168,
      "New": 6169,
      "Ant": 6170,
      "halts": 6171,
      "hervor": 6172,
      "gef": 6173,
      "whole": 6174,
      "ief": 6175,
      "bon": 6176,
      "sto": 6177,
      "näch": 6178,
      "depend": 6179,
      "speak": 6180,
      "wegen": 6181,
      "fert": 6182,
      "kre": 6183,
      "ölker": 6184,
      "lichkeit": 6185,
      "fig": 6186,
      "ners": 6187,
      "Lo": 6188,
      "davon": 6189,
      "entfern": 6190,
      "instit": 6191,
      "show": 6192,
      "Kre": 6193,
      "tag": 6194,
      "Thema": 6195,
      "EUR": 6196,
      "origin": 6197,
      "Strateg": 6198,
      "post": 6199,
      "facil": 6200,
      "weisen": 6201,
      "ieg": 6202,
      "schied": 6203,
      "cut": 6204,
      "equip": 6205,
      "sector": 6206,
      "aty": 6207,
      "address": 6208,
      "espe": 6209,
      "Frauen": 6210,
      "darüber": 6211,
      "suchen": 6212,
      "gegenüber": 6213,
      "schnell": 6214,
      "erforder": 6215,
      "Haupt": 6216,
      "weg": 6217,
      "Wett": 6218,
      "aim": 6219,
      "sele": 6220,
      "kein": 6221,
      "lle": 6222,
      "Zentr": 6223,
      "Fort": 6224,
      "Gä": 6225,
      "fon": 6226,
      "close": 6227,
      "daher": 6228,
      "Probleme": 6229,
      "tschafts": 6230,
      "anges": 6231,
      "coming": 6232,
      "schutz": 6233,
      "Berichterstat": 6234,
      "Wahl": 6235,
      "enzen": 6236,
      "ground": 6237,
      "23": 6238,
      "igkeiten": 6239,
      "Weg": 6240,
      "Gegen": 6241,
      "Je": 6242,
      "decision": 6243,
      "cording": 6244,
      "eigenen": 6245,
      "Industr": 6246,
      "companies": 6247,
      "women": 6248,
      "auer": 6249,
      "month": 6250,
      "word": 6251,
      "amm": 6252,
      "Viel": 6253,
      "various": 6254,
      "Tour": 6255,
      "Weise": 6256,
      "list": 6257,
      "gere": 6258,
      "commit": 6259,
      "experience": 6260,
      "Fahr": 6261,
      "ategor": 6262,
      "sport": 6263,
      "feat": 6264,
      "darf": 6265,
      "käm": 6266,
      "benef": 6267,
      "reform": 6268,
      "geord": 6269,
      "called": 6270,
      "igr": 6271,
      "industry": 6272,
      "doc": 6273,
      "frei": 6274,
      "sowohl": 6275,
      "hil": 6276,
      "vour": 6277,
      "selves": 6278,
      "ino": 6279,
      "guarante": 6280,
      "ban": 6281,
      "DE": 6282,
      "face": 6283,
      "Seiten": 6284,
      "weitere": 6285,
      "meiner": 6286,
      "isches": 6287,
      "IC": 6288,
      "Artik": 6289,
      "big": 6290,
      "Ihrer": 6291,
      "comes": 6292,
      "befindet": 6293,
      "Ende": 6294,
      "though": 6295,
      "Vers": 6296,
      "ika": 6297,
      "erreichen": 6298,
      "ziehen": 6299,
      "distr": 6300,
      "greif": 6301,
      "third": 6302,
      "she": 6303,
      "Produkt": 6304,
      "especially": 6305,
      "politik": 6306,
      "innov": 6307,
      "Deutsch": 6308,
      "könnte": 6309,
      "hatte": 6310,
      "prior": 6311,
      "ehen": 6312,
      "iar": 6313,
      "oney": 6314,
      "Ausschuss": 6315,
      "Software": 6316,
      "War": 6317,
      "natürlich": 6318,
      "matter": 6319,
      "racht": 6320,
      "location": 6321,
      "dessen": 6322,
      "food": 6323,
      "Car": 6324,
      "really": 6325,
      "tt": 6326,
      "kno": 6327,
      "staff": 6328,
      "head": 6329,
      "neten": 6330,
      "wind": 6331,
      "Zukunft": 6332,
      "ped": 6333,
      "Alle": 6334,
      "Forsch": 6335,
      "klar": 6336,
      "besonders": 6337,
      "iday": 6338,
      "goti": 6339,
      "iate": 6340,
      "Char": 6341,
      "lands": 6342,
      "AL": 6343,
      "name": 6344,
      "Sy": 6345,
      "Mehr": 6346,
      "dings": 6347,
      "hard": 6348,
      "ktor": 6349,
      "ably": 6350,
      "user": 6351,
      "tele": 6352,
      "contra": 6353,
      "effect": 6354,
      "El": 6355,
      "ry": 6356,
      "private": 6357,
      "Grup": 6358,
      "soc": 6359,
      "ands": 6360,
      "hoch": 6361,
      "unterstützen": 6362,
      "cellent": 6363,
      "Fest": 6364,
      "crip": 6365,
      "done": 6366,
      "improv": 6367,
      "2006": 6368,
      "ihnen": 6369,
      "Sw": 6370,
      "Richtlinie": 6371,
      "road": 6372,
      "comfort": 6373,
      "verschiedenen": 6374,
      "create": 6375,
      "ization": 6376,
      "project": 6377,
      "lines": 6378,
      "ON": 6379,
      "Den": 6380,
      "Pe": 6381,
      "pose": 6382,
      "automat": 6383,
      "mot": 6384,
      "dou": 6385,
      "ils": 6386,
      "product": 6387,
      "ences": 6388,
      "rä": 6389,
      ").\",\"": 6390,
      "proced": 6391,
      "Minister": 6392,
      "run": 6393,
      "install": 6394,
      "üss": 6395,
      "abhäng": 6396,
      "Comp": 6397,
      "turn": 6398,
      "gegeben": 6399,
      "Situation": 6400,
      "vest": 6401,
      "äd": 6402,
      "innerhalb": 6403,
      "zip": 6404,
      "orn": 6405,
      "communic": 6406,
      "genann": 6407,
      "negoti": 6408,
      "enden": 6409,
      "geschlossen": 6410,
      "isions": 6411,
      "Währ": 6412,
      "job": 6413,
      "entfernt": 6414,
      "kind": 6415,
      "Afr": 6416,
      "represent": 6417,
      "Do": 6418,
      "Wettbewer": 6419,
      "Kol": 6420,
      "vielen": 6421,
      "Dire": 6422,
      "ival": 6423,
      "dort": 6424,
      "tell": 6425,
      "ativen": 6426,
      "def": 6427,
      "house": 6428,
      "regul": 6429,
      "home": 6430,
      "TV": 6431,
      "geführt": 6432,
      "scheiden": 6433,
      "class": 6434,
      "ety": 6435,
      "enjoy": 6436,
      "langu": 6437,
      "Rolle": 6438,
      "Germany": 6439,
      "favour": 6440,
      "trodu": 6441,
      "ministr": 6442,
      "test": 6443,
      "approach": 6444,
      "Go": 6445,
      "ived": 6446,
      "Grün": 6447,
      "spolitik": 6448,
      "zwar": 6449,
      "ither": 6450,
      "instr": 6451,
      "samen": 6452,
      "event": 6453,
      "ichtet": 6454,
      "ennt": 6455,
      "single": 6456,
      "aid": 6457,
      "million": 6458,
      "among": 6459,
      "Geschäfts": 6460,
      "general": 6461,
      "ivers": 6462,
      "amework": 6463,
      "unge": 6464,
      "äuß": 6465,
      "abo": 6466,
      "cke": 6467,
      "internationalen": 6468,
      "ativ": 6469,
      "Wind": 6470,
      "stimmung": 6471,
      "employment": 6472,
      "blo": 6473,
      "Bu": 6474,
      "something": 6475,
      "direkt": 6476,
      "Ta": 6477,
      "ols": 6478,
      "fficient": 6479,
      "understand": 6480,
      "itself": 6481,
      "ours": 6482,
      "deli": 6483,
      "away": 6484,
      "Fil": 6485,
      "finanz": 6486,
      "several": 6487,
      "vol": 6488,
      "resour": 6489,
      "cris": 6490,
      "atten": 6491,
      "Nutz": 6492,
      "range": 6493,
      "möchten": 6494,
      "ifiz": 6495,
      "Wes": 6496,
      "Ap": 6497,
      "Fä": 6498,
      "ets": 6499,
      "Transp": 6500,
      "resolution": 6501,
      "software": 6502,
      "itor": 6503,
      "Kü": 6504,
      "introdu": 6505,
      "known": 6506,
      "ittle": 6507,
      "Verbrauch": 6508,
      "organis": 6509,
      "continue": 6510,
      "oment": 6511,
      "version": 6512,
      "Technolog": 6513,
      "Park": 6514,
      "AG": 6515,
      "folgt": 6516,
      "Ihren": 6517,
      "ühr": 6518,
      "often": 6519,
      "peace": 6520,
      "anzu": 6521,
      "werk": 6522,
      "urs": 6523,
      "mäß": 6524,
      "ago": 6525,
      "TO": 6526,
      "dür": 6527,
      "ov": 6528,
      "ände": 6529,
      "asing": 6530,
      "regional": 6531,
      "hlt": 6532,
      "lot": 6533,
      "ican": 6534,
      "mark": 6535,
      "institution": 6536,
      "excellent": 6537,
      "vil": 6538,
      "advan": 6539,
      "AC": 6540,
      "Wasser": 6541,
      "Wirtschaft": 6542,
      "app": 6543,
      "Hotels": 6544,
      "Gre": 6545,
      "progress": 6546,
      "rael": 6547,
      "Berlin": 6548,
      "taking": 6549,
      "sprache": 6550,
      "World": 6551,
      "least": 6552,
      "My": 6553,
      "Dr": 6554,
      "subject": 6555,
      "relations": 6556,
      "table": 6557,
      "etc": 6558,
      "Rück": 6559,
      "days": 6560,
      "Artikel": 6561,
      "opin": 6562,
      "erste": 6563,
      "atives": 6564,
      "ones": 6565,
      "following": 6566,
      "Frank": 6567,
      "Komm": 6568,
      "gentlemen": 6569,
      "verl": 6570,
      "Wirtschafts": 6571,
      "family": 6572,
      "serious": 6573,
      "Jan": 6574,
      "Partner": 6575,
      "olf": 6576,
      "inde": 6577,
      "europäische": 6578,
      "imp": 6579,
      "konn": 6580,
      "ugen": 6581,
      "nehmer": 6582,
      "Uhr": 6583,
      "ksam": 6584,
      "apart": 6585,
      "ances": 6586,
      "crisis": 6587,
      "aussch": 6588,
      "21": 6589,
      "tage": 6590,
      "particip": 6591,
      "zeitig": 6592,
      "Bau": 6593,
      "ians": 6594,
      "hunder": 6595,
      "individual": 6596,
      "optim": 6597,
      "gricult": 6598,
      "rules": 6599,
      "field": 6600,
      "Gesund": 6601,
      "directive": 6602,
      "hinaus": 6603,
      "price": 6604,
      "ünst": 6605,
      "Natur": 6606,
      "ults": 6607,
      "terr": 6608,
      "Ele": 6609,
      "Stud": 6610,
      "once": 6611,
      "online": 6612,
      "fel": 6613,
      "Spra": 6614,
      "Gebie": 6615,
      "Ac": 6616,
      "affen": 6617,
      "ifft": 6618,
      "frage": 6619,
      "network": 6620,
      "iere": 6621,
      "Dis": 6622,
      "money": 6623,
      "dest": 6624,
      "milit": 6625,
      "ferenz": 6626,
      "forward": 6627,
      "Berichterstatter": 6628,
      "ared": 6629,
      "antrag": 6630,
      "feel": 6631,
      "flex": 6632,
      "Invest": 6633,
      "gern": 6634,
      "einzel": 6635,
      "icle": 6636,
      "function": 6637,
      "ierungen": 6638,
      "mention": 6639,
      "schaffen": 6640,
      "absol": 6641,
      "welcome": 6642,
      "Fisch": 6643,
      "Meinung": 6644,
      "Ter": 6645,
      "wahr": 6646,
      "erien": 6647,
      "Ru": 6648,
      "imate": 6649,
      "strong": 6650,
      "Kultur": 6651,
      "towards": 6652,
      "ließen": 6653,
      "soci": 6654,
      "leistungen": 6655,
      "unehmen": 6656,
      "Span": 6657,
      "entsprechen": 6658,
      "22": 6659,
      "zer": 6660,
      "bi": 6661,
      "little": 6662,
      "Abgeord": 6663,
      "things": 6664,
      "ingen": 6665,
      "Gleich": 6666,
      "vier": 6667,
      "mann": 6668,
      "period": 6669,
      "weis": 6670,
      "uses": 6671,
      "bestehen": 6672,
      "amo": 6673,
      "extrem": 6674,
      "pot": 6675,
      "grün": 6676,
      "ichts": 6677,
      "hät": 6678,
      "Terr": 6679,
      "gesehen": 6680,
      "Hilfe": 6681,
      "Projekt": 6682,
      "RO": 6683,
      "teilung": 6684,
      "until": 6685,
      "zimmer": 6686,
      "institutions": 6687,
      "hnt": 6688,
      "Zusammenhang": 6689,
      "za": 6690,
      "iken": 6691,
      "Jul": 6692,
      "iesen": 6693,
      "situ": 6694,
      "ragen": 6695,
      "elect": 6696,
      "National": 6697,
      "iful": 6698,
      "Region": 6699,
      "Personen": 6700,
      "agree": 6701,
      "sty": 6702,
      "70": 6703,
      "ote": 6704,
      "Lösung": 6705,
      "Uns": 6706,
      "Gäste": 6707,
      "ification": 6708,
      "läge": 6709,
      "ideo": 6710,
      "sweise": 6711,
      "ference": 6712,
      "beiden": 6713,
      "unserem": 6714,
      "auen": 6715,
      "technology": 6716,
      "Bas": 6717,
      "einander": 6718,
      "2005": 6719,
      "betre": 6720,
      "Madam": 6721,
      "via": 6722,
      "gesagt": 6723,
      "keep": 6724,
      "friend": 6725,
      "gelegt": 6726,
      "customers": 6727,
      "IP": 6728,
      "grat": 6729,
      "Son": 6730,
      "raph": 6731,
      "Treaty": 6732,
      "round": 6733,
      "ritte": 6734,
      "Sü": 6735,
      "Entschließ": 6736,
      "attra": 6737,
      "tember": 6738,
      "asst": 6739,
      "zogen": 6740,
      "reicht": 6741,
      "isse": 6742,
      "Klim": 6743,
      "increase": 6744,
      "growth": 6745,
      "ume": 6746,
      "prepar": 6747,
      "macht": 6748,
      "politische": 6749,
      "ave": 6750,
      "ever": 6751,
      "leit": 6752,
      "mosp": 6753,
      "sw": 6754,
      "Verantwort": 6755,
      "idence": 6756,
      "standards": 6757,
      "Preis": 6758,
      "jähr": 6759,
      "groß": 6760,
      "opportunity": 6761,
      "reiche": 6762,
      "rather": 6763,
      "Sep": 6764,
      "Schluss": 6765,
      "bzw": 6766,
      "Bank": 6767,
      "ison": 6768,
      "Produkte": 6769,
      "Stre": 6770,
      "Dieses": 6771,
      "ffiz": 6772,
      "lear": 6773,
      "quite": 6774,
      "baren": 6775,
      "anst": 6776,
      "activities": 6777,
      "anim": 6778,
      "value": 6779,
      "building": 6780,
      "Gemeinschaft": 6781,
      "idency": 6782,
      "Pat": 6783,
      "prä": 6784,
      "Demokrat": 6785,
      "sal": 6786,
      "haus": 6787,
      "solid": 6788,
      "positive": 6789,
      "vision": 6790,
      "body": 6791,
      "photo": 6792,
      "host": 6793,
      "indem": 6794,
      "Can": 6795,
      "begrü": 6796,
      "autiful": 6797,
      "weniger": 6798,
      "OR": 6799,
      "Mil": 6800,
      "lon": 6801,
      "obje": 6802,
      "Haushalts": 6803,
      "edom": 6804,
      "halte": 6805,
      "AP": 6806,
      "etwa": 6807,
      "seem": 6808,
      "ruck": 6809,
      "teilen": 6810,
      "four": 6811,
      "sat": 6812,
      "front": 6813,
      "partners": 6814,
      "provided": 6815,
      "stain": 6816,
      "force": 6817,
      "Kosten": 6818,
      "ager": 6819,
      "ideal": 6820,
      "Zust": 6821,
      "mean": 6822,
      "constru": 6823,
      "Präsidentin": 6824,
      "resources": 6825,
      "standard": 6826,
      "daran": 6827,
      "Entwicklungs": 6828,
      "öffentlichen": 6829,
      "might": 6830,
      "Date": 6831,
      "ently": 6832,
      "Schl": 6833,
      "Frei": 6834,
      "Red": 6835,
      "ona": 6836,
      "prochen": 6837,
      "came": 6838,
      "wün": 6839,
      "hler": 6840,
      "ght": 6841,
      "team": 6842,
      "cu": 6843,
      "ckt": 6844,
      "Sou": 6845,
      "uellen": 6846,
      "gewähr": 6847,
      "State": 6848,
      "EL": 6849,
      "gilt": 6850,
      "behalf": 6851,
      "eded": 6852,
      "erwar": 6853,
      "shop": 6854,
      "forderungen": 6855,
      "2004": 6856,
      "som": 6857,
      "AD": 6858,
      "Sal": 6859,
      "having": 6860,
      "Bal": 6861,
      "persön": 6862,
      "Nov": 6863,
      "Members": 6864,
      "ka": 6865,
      "Deshalb": 6866,
      "framework": 6867,
      "kennen": 6868,
      "Rates": 6869,
      "vert": 6870,
      "erfolg": 6871,
      "After": 6872,
      "yet": 6873,
      "apan": 6874,
      "ücksicht": 6875,
      "troll": 6876,
      "ension": 6877,
      "pool": 6878,
      "ämlich": 6879,
      "Sozial": 6880,
      "jeden": 6881,
      "Austr": 6882,
      "model": 6883,
      "iding": 6884,
      "bitte": 6885,
      "raum": 6886,
      "fragen": 6887,
      "Stru": 6888,
      "September": 6889,
      "include": 6890,
      "mind": 6891,
      "gute": 6892,
      "night": 6893,
      "treat": 6894,
      "schrift": 6895,
      "hap": 6896,
      "ibil": 6897,
      "verständ": 6898,
      "content": 6899,
      "Schw": 6900,
      "amental": 6901,
      "nämlich": 6902,
      "educ": 6903,
      "öffentlich": 6904,
      "signific": 6905,
      "ided": 6906,
      "utet": 6907,
      "gemacht": 6908,
      "kung": 6909,
      "members": 6910,
      "Verfahren": 6911,
      "fang": 6912,
      "left": 6913,
      "One": 6914,
      "entscheiden": 6915,
      "ften": 6916,
      "rechts": 6917,
      "fähr": 6918,
      "bindung": 6919,
      "schl": 6920,
      "laub": 6921,
      "mail": 6922,
      "station": 6923,
      "request": 6924,
      "super": 6925,
      "Initi": 6926,
      "manu": 6927,
      "Priv": 6928,
      "Erfahr": 6929,
      "leisten": 6930,
      "altung": 6931,
      "ana": 6932,
      "ladies": 6933,
      "kar": 6934,
      "sogar": 6935,
      "stadt": 6936,
      "Pa": 6937,
      "foc": 6938,
      "stück": 6939,
      "border": 6940,
      "Millionen": 6941,
      "along": 6942,
      "Europas": 6943,
      "sichtlich": 6944,
      "times": 6945,
      "ächlich": 6946,
      "legenheit": 6947,
      "gerade": 6948,
      "lat": 6949,
      "Geb": 6950,
      "wahl": 6951,
      "solution": 6952,
      "week": 6953,
      "proposals": 6954,
      "\"(": 6955,
      "rop": 6956,
      "Sel": 6957,
      "ric": 6958,
      "Israel": 6959,
      "icken": 6960,
      "völker": 6961,
      "amendments": 6962,
      "recomm": 6963,
      "aufge": 6964,
      "beautiful": 6965,
      "words": 6966,
      "points": 6967,
      "Jahres": 6968,
      "mass": 6969,
      "Zugang": 6970,
      "safety": 6971,
      "198": 6972,
      "zeigen": 6973,
      "Punkt": 6974,
      "minutes": 6975,
      "eren": 6976,
      "remain": 6977,
      "tober": 6978,
      "ging": 6979,
      "Kap": 6980,
      "easy": 6981,
      "Institution": 6982,
      "viol": 6983,
      "appropr": 6984,
      "Ort": 6985,
      "check": 6986,
      "imes": 6987,
      "Tür": 6988,
      "graph": 6989,
      "2003": 6990,
      "above": 6991,
      "ring": 6992,
      "economy": 6993,
      "beral": 6994,
      "änger": 6995,
      "costs": 6996,
      "erziel": 6997,
      "mess": 6998,
      "Jo": 6999,
      "unterschied": 7000,
      "staat": 7001,
      "mm": 7002,
      "racy": 7003,
      "27": 7004,
      "?\",": 7005,
      "regel": 7006,
      "CD": 7007,
      "ihn": 7008,
      "zeichnet": 7009,
      "ros": 7010,
      "due": 7011,
      "Wh": 7012,
      "thod": 7013,
      "others": 7014,
      "Deutschland": 7015,
      "cop": 7016,
      "meisten": 7017,
      "reserv": 7018,
      "adopted": 7019,
      "stant": 7020,
      "Che": 7021,
      "mobil": 7022,
      "ebenfalls": 7023,
      "Hol": 7024,
      "Design": 7025,
      "Geld": 7026,
      "Verhand": 7027,
      "object": 7028,
      "beginn": 7029,
      "Tats": 7030,
      "ify": 7031,
      "bew": 7032,
      "demokrat": 7033,
      "Sa": 7034,
      "brauchen": 7035,
      "Website": 7036,
      "verkehr": 7037,
      "ihm": 7038,
      "charac": 7039,
      "einzu": 7040,
      "Unsere": 7041,
      "makes": 7042,
      "Dieser": 7043,
      "contact": 7044,
      "Ebene": 7045,
      "Leist": 7046,
      "Eng": 7047,
      "Janu": 7048,
      "seinem": 7049,
      "Prof": 7050,
      "verbunden": 7051,
      "return": 7052,
      "challen": 7053,
      "entire": 7054,
      "rate": 7055,
      "Bezug": 7056,
      "opinion": 7057,
      "zunehmen": 7058,
      "don": 7059,
      "einigen": 7060,
      "minister": 7061,
      "agricult": 7062,
      "website": 7063,
      "send": 7064,
      "OS": 7065,
      "lar": 7066,
      "moder": 7067,
      "central": 7068,
      "Engl": 7069,
      "sens": 7070,
      "Qualität": 7071,
      "unst": 7072,
      "never": 7073,
      "Verkehr": 7074,
      "icial": 7075,
      "opt": 7076,
      "läss": 7077,
      "Buch": 7078,
      "arbeitet": 7079,
      "Sub": 7080,
      "application": 7081,
      "heim": 7082,
      "Aussprache": 7083,
      "sof": 7084,
      "üt": 7085,
      "Rechte": 7086,
      "legislation": 7087,
      "past": 7088,
      "democr": 7089,
      "rela": 7090,
      "Text": 7091,
      "sea": 7092,
      "win": 7093,
      "nete": 7094,
      "unterstützt": 7095,
      "effective": 7096,
      "Instr": 7097,
      "sites": 7098,
      "istic": 7099,
      "ented": 7100,
      "bath": 7101,
      "projects": 7102,
      "Restaurant": 7103,
      "bour": 7104,
      "aurants": 7105,
      "heart": 7106,
      "laden": 7107,
      "mitt": 7108,
      "results": 7109,
      "prove": 7110,
      "ledge": 7111,
      "Christ": 7112,
      "schö": 7113,
      "leis": 7114,
      "freedom": 7115,
      "provides": 7116,
      "liches": 7117,
      "ames": 7118,
      "iled": 7119,
      "groups": 7120,
      "stimmen": 7121,
      "administr": 7122,
      "Nä": 7123,
      "darin": 7124,
      "risk": 7125,
      "teile": 7126,
      "Kam": 7127,
      "Just": 7128,
      "bahn": 7129,
      "responsibility": 7130,
      "künft": 7131,
      "attention": 7132,
      "conf": 7133,
      "erklär": 7134,
      "berg": 7135,
      "Off": 7136,
      "policies": 7137,
      "Nicht": 7138,
      "Mär": 7139,
      "platz": 7140,
      "fung": 7141,
      "concerned": 7142,
      "forman": 7143,
      "East": 7144,
      "Abstimmung": 7145,
      "unver": 7146,
      "stu": 7147,
      "perfect": 7148,
      "lease": 7149,
      "derzeit": 7150,
      "isiert": 7151,
      "Rei": 7152,
      "2001": 7153,
      "nationalen": 7154,
      "glaube": 7155,
      "herr": 7156,
      "Organisation": 7157,
      "komple": 7158,
      "gebung": 7159,
      "structure": 7160,
      "Meer": 7161,
      "total": 7162,
      "ständig": 7163,
      "bekannt": 7164,
      "möglichen": 7165,
      "simply": 7166,
      "...\",\"": 7167,
      "bare": 7168,
      "Hö": 7169,
      "termin": 7170,
      "hens": 7171,
      "Früh": 7172,
      "dürfen": 7173,
      "Abkommen": 7174,
      "Mail": 7175,
      "infl": 7176,
      "oting": 7177,
      "aged": 7178,
      "young": 7179,
      "beh": 7180,
      "step": 7181,
      "nichts": 7182,
      "gas": 7183,
      "extra": 7184,
      "fordern": 7185,
      "cli": 7186,
      "cir": 7187,
      "offe": 7188,
      "ama": 7189,
      "Jahrhunder": 7190,
      "fish": 7191,
      "questions": 7192,
      "zä": 7193,
      "importance": 7194,
      "Beschäft": 7195,
      "society": 7196,
      "iers": 7197,
      "beispiel": 7198,
      "Benutz": 7199,
      "denken": 7200,
      "sse": 7201,
      "firm": 7202,
      "ene": 7203,
      "Verbraucher": 7204,
      "uth": 7205,
      "ift": 7206,
      "sollen": 7207,
      "dien": 7208,
      "context": 7209,
      "holiday": 7210,
      "link": 7211,
      "Kur": 7212,
      "ished": 7213,
      "Pra": 7214,
      "method": 7215,
      "environmental": 7216,
      "natural": 7217,
      "ihrem": 7218,
      "stor": 7219,
      "greater": 7220,
      "una": 7221,
      "freund": 7222,
      "bleiben": 7223,
      "Mor": 7224,
      "training": 7225,
      "drück": 7226,
      "gestimmt": 7227,
      "keinen": 7228,
      "Wach": 7229,
      "ada": 7230,
      "voted": 7231,
      "ench": 7232,
      "Room": 7233,
      "Groß": 7234,
      "Dank": 7235,
      "Dok": 7236,
      "anderer": 7237,
      "inge": 7238,
      "wärt": 7239,
      "ID": 7240,
      "strategy": 7241,
      "kurz": 7242,
      "lei": 7243,
      "90": 7244,
      "speziel": 7245,
      "Gesetz": 7246,
      "increasing": 7247,
      "ders": 7248,
      "zusätz": 7249,
      "griff": 7250,
      "ächst": 7251,
      "cultural": 7252,
      "forts": 7253,
      "onstr": 7254,
      "hes": 7255,
      "wenig": 7256,
      "Kolleg": 7257,
      "betrifft": 7258,
      "entliche": 7259,
      "uen": 7260,
      "unkte": 7261,
      "verbess": 7262,
      "zustellen": 7263,
      "arian": 7264,
      "Debat": 7265,
      "breakfast": 7266,
      "IM": 7267,
      "music": 7268,
      "llt": 7269,
      "bung": 7270,
      "mechan": 7271,
      "leader": 7272,
      "mitted": 7273,
      "dan": 7274,
      "spir": 7275,
      "PC": 7276,
      "principle": 7277,
      "aktiv": 7278,
      "tin": 7279,
      "sei": 7280,
      "Dam": 7281,
      "Schwe": 7282,
      "assist": 7283,
      "weiterhin": 7284,
      "answer": 7285,
      "Strategie": 7286,
      "istan": 7287,
      "uell": 7288,
      "quick": 7289,
      "commod": 7290,
      "uz": 7291,
      "Cor": 7292,
      "ported": 7293,
      "add": 7294,
      "unächst": 7295,
      "utzt": 7296,
      "äter": 7297,
      "interess": 7298,
      "passen": 7299,
      "ref": 7300,
      "affe": 7301,
      "Sicherheits": 7302,
      "Disk": 7303,
      "looking": 7304,
      "Fortsch": 7305,
      "setzt": 7306,
      "aud": 7307,
      "vement": 7308,
      "prec": 7309,
      "clean": 7310,
      "ball": 7311,
      "inten": 7312,
      "hnen": 7313,
      "weite": 7314,
      "manufact": 7315,
      "geschlagen": 7316,
      "board": 7317,
      "Bil": 7318,
      "May": 7319,
      "required": 7320,
      "demand": 7321,
      "uelle": 7322,
      "seits": 7323,
      "nu": 7324,
      "responsible": 7325,
      "verfahren": 7326,
      "Apr": 7327,
      "wirtschaftlichen": 7328,
      "Sitz": 7329,
      "mals": 7330,
      "changes": 7331,
      "Bem": 7332,
      "Ju": 7333,
      "struktur": 7334,
      "trolle": 7335,
      "span": 7336,
      "Gesellschaft": 7337,
      "pages": 7338,
      "deutlich": 7339,
      "2002": 7340,
      "capital": 7341,
      "Sport": 7342,
      "schwer": 7343,
      "Windows": 7344,
      "hib": 7345,
      "Schul": 7346,
      "Fund": 7347,
      "Wohn": 7348,
      "Änderungsan": 7349,
      "significant": 7350,
      "besten": 7351,
      "aden": 7352,
      "century": 7353,
      "remo": 7354,
      "ocracy": 7355,
      "Gover": 7356,
      "Klima": 7357,
      "safe": 7358,
      "useum": 7359,
      "posed": 7360,
      "sug": 7361,
      "wichtige": 7362,
      "share": 7363,
      "gestat": 7364,
      "ators": 7365,
      "try": 7366,
      "ined": 7367,
      "bedeutet": 7368,
      "meeting": 7369,
      "äl": 7370,
      "zehn": 7371,
      "clearly": 7372,
      "moun": 7373,
      "Stat": 7374,
      "Japan": 7375,
      "ichen": 7376,
      "terror": 7377,
      "lange": 7378,
      "benöt": 7379,
      "technical": 7380,
      "Gl": 7381,
      "deshalb": 7382,
      "solche": 7383,
      "Wel": 7384,
      "Betrie": 7385,
      "essential": 7386,
      "authorities": 7387,
      "haltung": 7388,
      "nutzen": 7389,
      "verein": 7390,
      "Bezieh": 7391,
      "Von": 7392,
      "ehr": 7393,
      "By": 7394,
      "continu": 7395,
      "ites": 7396,
      "November": 7397,
      "relax": 7398,
      "moment": 7399,
      "cast": 7400,
      "distrib": 7401,
      "scho": 7402,
      "boten": 7403,
      "hab": 7404,
      "Op": 7405,
      "grup": 7406,
      "stum": 7407,
      "aufgrund": 7408,
      "gratul": 7409,
      "gliche": 7410,
      "Foto": 7411,
      "aup": 7412,
      "sustain": 7413,
      "pfung": 7414,
      "General": 7415,
      "atal": 7416,
      "wan": 7417,
      "teilt": 7418,
      "fairs": 7419,
      "Will": 7420,
      "bra": 7421,
      "lab": 7422,
      "ucht": 7423,
      "RE": 7424,
      "space": 7425,
      "Tro": 7426,
      "ulture": 7427,
      "according": 7428,
      "gebracht": 7429,
      "stop": 7430,
      "achieve": 7431,
      "würden": 7432,
      "cla": 7433,
      "züglich": 7434,
      "loss": 7435,
      "active": 7436,
      "First": 7437,
      "gehört": 7438,
      "acy": 7439,
      "alter": 7440,
      "fundamental": 7441,
      ".\",\"(": 7442,
      "crimin": 7443,
      "internal": 7444,
      "nature": 7445,
      "äsent": 7446,
      "26": 7447,
      "Insel": 7448,
      "Tele": 7449,
      "Mitarbeit": 7450,
      "Förder": 7451,
      "Far": 7452,
      "funktion": 7453,
      "schre": 7454,
      "Menschenrechte": 7455,
      "live": 7456,
      "Bevölker": 7457,
      "Netz": 7458,
      "pflicht": 7459,
      "Industrie": 7460,
      "500": 7461,
      "inzip": 7462,
      "AM": 7463,
      "itäts": 7464,
      "Bre": 7465,
      "Prozess": 7466,
      "directly": 7467,
      "fehl": 7468,
      "months": 7469,
      "hörden": 7470,
      "Musik": 7471,
      "Demokratie": 7472,
      "longer": 7473,
      "facilities": 7474,
      "April": 7475,
      "solutions": 7476,
      "Richtung": 7477,
      "history": 7478,
      "frist": 7479,
      "esen": 7480,
      "erous": 7481,
      "zel": 7482,
      "Wert": 7483,
      "nächsten": 7484,
      "Außen": 7485,
      "currently": 7486,
      "Ansicht": 7487,
      "enough": 7488,
      "Pub": 7489,
      "Umsetzung": 7490,
      "schluss": 7491,
      "proposed": 7492,
      "cure": 7493,
      "Sh": 7494,
      "corre": 7495,
      "Fern": 7496,
      "SE": 7497,
      "developed": 7498,
      "neuer": 7499,
      "länd": 7500,
      "Opt": 7501,
      "related": 7502,
      "subs": 7503,
      "restaurant": 7504,
      "events": 7505,
      "draw": 7506,
      "ables": 7507,
      "takt": 7508,
      "character": 7509,
      "Verbesser": 7510,
      "unch": 7511,
      "auszu": 7512,
      "civil": 7513,
      "Struktur": 7514,
      "yl": 7515,
      "Ira": 7516,
      "interests": 7517,
      "guests": 7518,
      "charge": 7519,
      "Steuer": 7520,
      "Herren": 7521,
      "item": 7522,
      "needed": 7523,
      "werde": 7524,
      "ought": 7525,
      "Plan": 7526,
      "Besuch": 7527,
      "requirements": 7528,
      "fam": 7529,
      "regions": 7530,
      "prevent": 7531,
      "fight": 7532,
      "language": 7533,
      "Nähe": 7534,
      "formance": 7535,
      "onen": 7536,
      "aging": 7537,
      "hm": 7538,
      "Govern": 7539,
      "Book": 7540,
      "greifen": 7541,
      "normal": 7542,
      "parties": 7543,
      "28": 7544,
      "lö": 7545,
      "Anwendung": 7546,
      "mbH": 7547,
      "tar": 7548,
      "aper": 7549,
      "weder": 7550,
      "umente": 7551,
      "condition": 7552,
      "allerdings": 7553,
      "From": 7554,
      "organisation": 7555,
      "recogn": 7556,
      "Kunst": 7557,
      "sition": 7558,
      "ano": 7559,
      "Please": 7560,
      "anti": 7561,
      "Ziele": 7562,
      "involved": 7563,
      "volle": 7564,
      "lex": 7565,
      "combin": 7566,
      "Parte": 7567,
      "apply": 7568,
      "themselves": 7569,
      "upon": 7570,
      "enthalten": 7571,
      "Bedingungen": 7572,
      "Verantwortung": 7573,
      "mob": 7574,
      "contain": 7575,
      "gesetz": 7576,
      "Tages": 7577,
      "foreign": 7578,
      "beispielsweise": 7579,
      "üssel": 7580,
      "fün": 7581,
      "regulation": 7582,
      "Ide": 7583,
      "type": 7584,
      "lied": 7585,
      "iellen": 7586,
      "hoffe": 7587,
      "Vertr": 7588,
      "iner": 7589,
      "chter": 7590,
      "democracy": 7591,
      "Brit": 7592,
      "richtung": 7593,
      "Team": 7594,
      "comfortable": 7595,
      "competition": 7596,
      "separ": 7597,
      "implementation": 7598,
      "card": 7599,
      "wirkungen": 7600,
      "Dah": 7601,
      "ßt": 7602,
      "ception": 7603,
      "center": 7604,
      "Russia": 7605,
      "happen": 7606,
      "markets": 7607,
      "Aspe": 7608,
      "notwendig": 7609,
      "Mot": 7610,
      "Paris": 7611,
      "gemeinsamen": 7612,
      "presented": 7613,
      "Emp": 7614,
      "extremely": 7615,
      "äu": 7616,
      "tä": 7617,
      "bad": 7618,
      "competit": 7619,
      "hon": 7620,
      "Version": 7621,
      "Krit": 7622,
      "anten": 7623,
      "va": 7624,
      "stead": 7625,
      "jeweil": 7626,
      "cam": 7627,
      "please": 7628,
      "amt": 7629,
      "atch": 7630,
      "scheint": 7631,
      "hinder": 7632,
      "eth": 7633,
      "efforts": 7634,
      "park": 7635,
      "Selbst": 7636,
      "nimmt": 7637,
      "GmbH": 7638,
      "held": 7639,
      "cases": 7640,
      "Vorschläge": 7641,
      "ält": 7642,
      "sozialen": 7643,
      "acc": 7644,
      "Wieder": 7645,
      "Aug": 7646,
      "betra": 7647,
      "caus": 7648,
      "etzen": 7649,
      "Gebiet": 7650,
      "vielleicht": 7651,
      "altern": 7652,
      "kleinen": 7653,
      "messen": 7654,
      "verwendet": 7655,
      "Du": 7656,
      "Grundlage": 7657,
      "Erfolg": 7658,
      "linien": 7659,
      "Erweiter": 7660,
      "Interesse": 7661,
      "gemeinsam": 7662,
      "Reihe": 7663,
      "llig": 7664,
      "www": 7665,
      "phone": 7666,
      "farm": 7667,
      "Aktiv": 7668,
      "friendly": 7669,
      "Einsatz": 7670,
      "soon": 7671,
      "maxim": 7672,
      "unternehmen": 7673,
      "Kön": 7674,
      "Trans": 7675,
      "brit": 7676,
      "South": 7677,
      "illa": 7678,
      "chem": 7679,
      "standen": 7680,
      "kei": 7681,
      "berücksicht": 7682,
      "Frieden": 7683,
      "wider": 7684,
      "Geschichte": 7685,
      "democratic": 7686,
      "clar": 7687,
      "erfü": 7688,
      "peten": 7689,
      "works": 7690,
      "fordert": 7691,
      "file": 7692,
      "hor": 7693,
      "bevor": 7694,
      "thus": 7695,
      "lig": 7696,
      "Wort": 7697,
      "dell": 7698,
      "ested": 7699,
      "istischen": 7700,
      "Ihrem": 7701,
      "minim": 7702,
      "Real": 7703,
      "kor": 7704,
      "Verf": 7705,
      "ermöglich": 7706,
      "dev": 7707,
      "mel": 7708,
      "France": 7709,
      "Nord": 7710,
      "harmon": 7711,
      "Rad": 7712,
      "1999": 7713,
      "rup": 7714,
      "Cour": 7715,
      "recommend": 7716,
      "sitz": 7717,
      "appropriate": 7718,
      "isher": 7719,
      "Raum": 7720,
      "erreicht": 7721,
      "mand": 7722,
      "claim": 7723,
      "--": 7724,
      "respe": 7725,
      "Möglichkeiten": 7726,
      "ME": 7727,
      "either": 7728,
      "Daher": 7729,
      "actions": 7730,
      "ax": 7731,
      "Außer": 7732,
      "Kir": 7733,
      "More": 7734,
      "CH": 7735,
      "ired": 7736,
      "previous": 7737,
      "Star": 7738,
      "sound": 7739,
      "höch": 7740,
      "Zus": 7741,
      "ey": 7742,
      "indic": 7743,
      "West": 7744,
      "ony": 7745,
      "atory": 7746,
      "situated": 7747,
      "gelten": 7748,
      "negotiations": 7749,
      "andid": 7750,
      "Institutionen": 7751,
      "Wissen": 7752,
      "true": 7753,
      "prise": 7754,
      "Office": 7755,
      "final": 7756,
      "sucht": 7757,
      "35": 7758,
      "Integr": 7759,
      "mid": 7760,
      "created": 7761,
      "Nie": 7762,
      "Kle": 7763,
      "Debatte": 7764,
      "merksam": 7765,
      "maintain": 7766,
      "yp": 7767,
      "Öff": 7768,
      "igungs": 7769,
      "unded": 7770,
      "Platz": 7771,
      "gleichen": 7772,
      "ctors": 7773,
      "ases": 7774,
      "Unser": 7775,
      "29": 7776,
      "Erklär": 7777,
      "neg": 7778,
      "Funktion": 7779,
      "schwier": 7780,
      "everything": 7781,
      "states": 7782,
      "kam": 7783,
      "entwickelt": 7784,
      "developing": 7785,
      "Verwalt": 7786,
      "lose": 7787,
      "later": 7788,
      "allgem": 7789,
      "Entscheidung": 7790,
      "American": 7791,
      "Damen": 7792,
      "Druck": 7793,
      "seen": 7794,
      "ibr": 7795,
      "commer": 7796,
      "Arch": 7797,
      "French": 7798,
      "pict": 7799,
      "danken": 7800,
      "Inst": 7801,
      "immed": 7802,
      "disk": 7803,
      "exten": 7804,
      "vorsch": 7805,
      "befinden": 7806,
      "esten": 7807,
      "hout": 7808,
      "ination": 7809,
      "famous": 7810,
      "clos": 7811,
      "dialog": 7812,
      "unique": 7813,
      "prim": 7814,
      "modif": 7815,
      "arbeitung": 7816,
      "demonstr": 7817,
      "itens": 7818,
      "Ka": 7819,
      "monitor": 7820,
      "education": 7821,
      "umfassen": 7822,
      "!\",": 7823,
      "Up": 7824,
      "erwä": 7825,
      "additional": 7826,
      "Apart": 7827,
      "anno": 7828,
      "achen": 7829,
      "living": 7830,
      "avo": 7831,
      "funds": 7832,
      "Cas": 7833,
      "verschiedene": 7834,
      "weiß": 7835,
      "prices": 7836,
      "improve": 7837,
      "links": 7838,
      "How": 7839,
      "Blick": 7840,
      "Presidency": 7841,
      "Rechn": 7842,
      "könnten": 7843,
      "parts": 7844,
      "analys": 7845,
      "ruh": 7846,
      "Hinblick": 7847,
      "almost": 7848,
      "climate": 7849,
      "Har": 7850,
      "Inform": 7851,
      "accommod": 7852,
      "Mitglieder": 7853,
      "travel": 7854,
      "happ": 7855,
      "achten": 7856,
      "Lis": 7857,
      "unik": 7858,
      "vorgeschlagen": 7859,
      "Dienstleistungen": 7860,
      "ri": 7861,
      "hinter": 7862,
      "rich": 7863,
      "designed": 7864,
      "ature": 7865,
      "vic": 7866,
      "included": 7867,
      "ingt": 7868,
      "LE": 7869,
      "Minuten": 7870,
      "nehm": 7871,
      "Hoch": 7872,
      "weltweit": 7873,
      "45": 7874,
      "expect": 7875,
      "abge": 7876,
      "idea": 7877,
      "gemeinsame": 7878,
      "document": 7879,
      "hung": 7880,
      "bildung": 7881,
      "actually": 7882,
      "respon": 7883,
      "Kraft": 7884,
      "Diskuss": 7885,
      "dre": 7886,
      "hold": 7887,
      "verfügt": 7888,
      "gesellschaft": 7889,
      "euro": 7890,
      "Heraus": 7891,
      "pan": 7892,
      "hinzu": 7893,
      "reib": 7894,
      "heiß": 7895,
      "tats": 7896,
      "ermöglicht": 7897,
      "Frühstück": 7898,
      "Luft": 7899,
      "mission": 7900,
      "spräsident": 7901,
      "hatten": 7902,
      "Auswirkungen": 7903,
      "haps": 7904,
      "knowledge": 7905,
      "ba": 7906,
      "för": 7907,
      "Änderungsantrag": 7908,
      "rieben": 7909,
      "Regionen": 7910,
      "encour": 7911,
      "dependent": 7912,
      "communication": 7913,
      "iffen": 7914,
      "five": 7915,
      "frü": 7916,
      "Doch": 7917,
      "receive": 7918,
      "Vertre": 7919,
      "ürz": 7920,
      "uren": 7921,
      "helfen": 7922,
      "workers": 7923,
      "walk": 7924,
      "intens": 7925,
      "Innen": 7926,
      "chs": 7927,
      "Bü": 7928,
      "jenigen": 7929,
      "early": 7930,
      "Met": 7931,
      "ebenso": 7932,
      "ceed": 7933,
      "jud": 7934,
      "Landes": 7935,
      "ielle": 7936,
      "associ": 7937,
      "iting": 7938,
      "Abgeordneten": 7939,
      "cen": 7940,
      "dict": 7941,
      "Programme": 7942,
      "fortun": 7943,
      "schriften": 7944,
      "gain": 7945,
      "initiative": 7946,
      "Tatsache": 7947,
      "cies": 7948,
      "krä": 7949,
      "bisher": 7950,
      "Proto": 7951,
      "protect": 7952,
      "seite": 7953,
      "schie": 7954,
      "aler": 7955,
      "entsch": 7956,
      "leading": 7957,
      "Verhandlungen": 7958,
      "erforderlich": 7959,
      "fu": 7960,
      "erhö": 7961,
      "Familien": 7962,
      "isieren": 7963,
      "takes": 7964,
      "outside": 7965,
      "chsel": 7966,
      "Ausdruck": 7967,
      "sprech": 7968,
      "fünf": 7969,
      "professional": 7970,
      "Portug": 7971,
      "partner": 7972,
      "Ergebnis": 7973,
      "procedure": 7974,
      "gab": 7975,
      "bedeuten": 7976,
      "Haf": 7977,
      "kra": 7978,
      "race": 7979,
      "spielen": 7980,
      "amerikan": 7981,
      "Lond": 7982,
      "built": 7983,
      "zone": 7984,
      "gesamten": 7985,
      "ilar": 7986,
      "Ha": 7987,
      "pal": 7988,
      "users": 7989,
      "verantwort": 7990,
      "adurch": 7991,
      "itions": 7992,
      "Host": 7993,
      "Einzel": 7994,
      "tack": 7995,
      "Schritt": 7996,
      "August": 7997,
      "197": 7998,
      "bru": 7999,
      "Binnen": 8000,
      "Dan": 8001,
      "hend": 8002,
      "enable": 8003,
      "suggest": 8004,
      "majority": 8005,
      "Liste": 8006,
      "exclus": 8007,
      "features": 8008,
      "Forschung": 8009,
      "einzelnen": 8010,
      "refle": 8011,
      "amount": 8012,
      "Net": 8013,
      "darum": 8014,
      "original": 8015,
      "mp": 8016,
      "genie": 8017,
      "Mob": 8018,
      "Zur": 8019,
      "resol": 8020,
      "später": 8021,
      "North": 8022,
      "Seit": 8023,
      "Iran": 8024,
      "itionen": 8025,
      "mag": 8026,
      "denke": 8027,
      "emphas": 8028,
      "Kolleginnen": 8029,
      "getr": 8030,
      "took": 8031,
      "erhe": 8032,
      "Zentrum": 8033,
      "hours": 8034,
      "spricht": 8035,
      "ausgestat": 8036,
      "größer": 8037,
      "lok": 8038,
      "zif": 8039,
      "Gruppe": 8040,
      "ffer": 8041,
      "bef": 8042,
      "cru": 8043,
      "läs": 8044,
      "Bahn": 8045,
      "...,": 8046,
      "schön": 8047,
      "ending": 8048,
      "entre": 8049,
      "auber": 8050,
      "Online": 8051,
      "Ris": 8052,
      "cep": 8053,
      "customer": 8054,
      "vin": 8055,
      "Vis": 8056,
      "aster": 8057,
      "Dialog": 8058,
      "doing": 8059,
      "impact": 8060,
      "throughout": 8061,
      "mitteln": 8062,
      "High": 8063,
      "weiteren": 8064,
      "guarantee": 8065,
      "Ster": 8066,
      "ternal": 8067,
      "angenommen": 8068,
      "ald": 8069,
      "Antwort": 8070,
      "connection": 8071,
      "Führ": 8072,
      "änden": 8073,
      "Terror": 8074,
      "Außerdem": 8075,
      "ländern": 8076,
      "Zum": 8077,
      "ST": 8078,
      "Änderungsanträge": 8079,
      "wunder": 8080,
      "folge": 8081,
      "relig": 8082,
      "corpor": 8083,
      "präsent": 8084,
      "club": 8085,
      "across": 8086,
      "media": 8087,
      "indest": 8088,
      "profit": 8089,
      "publish": 8090,
      "London": 8091,
      "party": 8092,
      "cross": 8093,
      "Werk": 8094,
      "thre": 8095,
      "Bereichen": 8096,
      "igration": 8097,
      "neben": 8098,
      "bian": 8099,
      "strengthen": 8100,
      "traditional": 8101,
      "wachsen": 8102,
      "Gra": 8103,
      "internationale": 8104,
      "tic": 8105,
      "forms": 8106,
      "game": 8107,
      "Beg": 8108,
      "akzept": 8109,
      "writing": 8110,
      "search": 8111,
      "reiben": 8112,
      "mentioned": 8113,
      "investment": 8114,
      "certainly": 8115,
      "kämpfung": 8116,
      "Weiter": 8117,
      "jedem": 8118,
      "Staats": 8119,
      "consequ": 8120,
      "rates": 8121,
      "Handel": 8122,
      "schle": 8123,
      "effiz": 8124,
      "ändert": 8125,
      "ült": 8126,
      "ij": 8127,
      "orf": 8128,
      "fähigkeit": 8129,
      "usst": 8130,
      "sex": 8131,
      "Univers": 8132,
      "konnte": 8133,
      "Bevölkerung": 8134,
      "performance": 8135,
      "hätte": 8136,
      "dle": 8137,
      "aring": 8138,
      "Fischere": 8139,
      "tran": 8140,
      "Play": 8141,
      "existing": 8142,
      "richtig": 8143,
      "gegenwärt": 8144,
      "although": 8145,
      "Beziehungen": 8146,
      "Vereinigten": 8147,
      "gän": 8148,
      "Mag": 8149,
      "öst": 8150,
      "colleag": 8151,
      "itten": 8152,
      "Handels": 8153,
      "English": 8154,
      "Let": 8155,
      "onom": 8156,
      "tle": 8157,
      "ull": 8158,
      "formen": 8159,
      "Aben": 8160,
      "programmes": 8161,
      "Turkey": 8162,
      "gleichzeitig": 8163,
      "parliament": 8164,
      "leistet": 8165,
      "complex": 8166,
      "prakt": 8167,
      "Verbindung": 8168,
      "dete": 8169,
      "gemäß": 8170,
      "Proz": 8171,
      "PE": 8172,
      "anzen": 8173,
      "heißt": 8174,
      "heut": 8175,
      "ule": 8176,
      "Verordnung": 8177,
      "300": 8178,
      "coordin": 8179,
      "concerns": 8180,
      "cript": 8181,
      "Akt": 8182,
      "code": 8183,
      "iens": 8184,
      "Fuß": 8185,
      "länder": 8186,
      "wichtigen": 8187,
      "Government": 8188,
      "lux": 8189,
      "ping": 8190,
      "sent": 8191,
      "enor": 8192,
      "Centr": 8193,
      "fan": 8194,
      "letzt": 8195,
      "barkeit": 8196,
      "Interessen": 8197,
      "teid": 8198,
      "ush": 8199,
      "haft": 8200,
      "confl": 8201,
      "ausch": 8202,
      "correct": 8203,
      "aware": 8204,
      "plant": 8205,
      "image": 8206,
      "Themen": 8207,
      "mein": 8208,
      "assess": 8209,
      "zeugen": 8210,
      "culture": 8211,
      "heraus": 8212,
      "kn": 8213,
      "igte": 8214,
      "America": 8215,
      "transfer": 8216,
      "cker": 8217,
      "bleibt": 8218,
      "concerning": 8219,
      "fs": 8220,
      "neut": 8221,
      "rund": 8222,
      "jede": 8223,
      "computer": 8224,
      "Sor": 8225,
      "iversit": 8226,
      "Beitrag": 8227,
      "committee": 8228,
      "absolute": 8229,
      "Förderung": 8230,
      "abon": 8231,
      "community": 8232,
      "Aufgabe": 8233,
      "DV": 8234,
      "hase": 8235,
      "ari": 8236,
      "Haushalt": 8237,
      "digital": 8238,
      "Krise": 8239,
      "Court": 8240,
      "military": 8241,
      "Türkei": 8242,
      "Kontrolle": 8243,
      "established": 8244,
      "reasons": 8245,
      "cri": 8246,
      "speed": 8247,
      "Verpflicht": 8248,
      "amb": 8249,
      "bekommen": 8250,
      "iment": 8251,
      "ären": 8252,
      "handlung": 8253,
      "agreements": 8254,
      "kleine": 8255,
      "nothing": 8256,
      "Standard": 8257,
      "Wettbewerbs": 8258,
      "Kampf": 8259,
      "joint": 8260,
      "internet": 8261,
      "completely": 8262,
      "Rel": 8263,
      "verständlich": 8264,
      "west": 8265,
      "decisions": 8266,
      "transl": 8267,
      "population": 8268,
      "construction": 8269,
      "Reform": 8270,
      "unabhäng": 8271,
      "extens": 8272,
      "richtungen": 8273,
      "Febru": 8274,
      "div": 8275,
      "includes": 8276,
      "archite": 8277,
      "Barcel": 8278,
      "Stabil": 8279,
      "jahr": 8280,
      "approv": 8281,
      "affung": 8282,
      "garant": 8283,
      "krit": 8284,
      "gerichtet": 8285,
      "practice": 8286,
      "sag": 8287,
      "pleas": 8288,
      "Dec": 8289,
      "basic": 8290,
      "Home": 8291,
      "Kor": 8292,
      "meinen": 8293,
      "box": 8294,
      "pet": 8295,
      "warm": 8296,
      "ieb": 8297,
      "iterr": 8298,
      "official": 8299,
      "fallen": 8300,
      "fal": 8301,
      "nahe": 8302,
      "path": 8303,
      "enlarge": 8304,
      "bert": 8305,
      "ifel": 8306,
      "acqu": 8307,
      "rachten": 8308,
      "PL": 8309,
      "31": 8310,
      "Schlussel": 8311,
      "\"\"\"": 8312,
      "amera": 8313,
      "style": 8314,
      "alb": 8315,
      "Lux": 8316,
      "ires": 8317,
      "capac": 8318,
      "fli": 8319,
      "lässt": 8320,
      "See": 8321,
      "ester": 8322,
      "unseres": 8323,
      "files": 8324,
      "equipped": 8325,
      "got": 8326,
      "consult": 8327,
      "pfen": 8328,
      "guest": 8329,
      "Ausschusses": 8330,
      "pon": 8331,
      "allows": 8332,
      "credit": 8333,
      "kraft": 8334,
      "oblig": 8335,
      "anzös": 8336,
      "handeln": 8337,
      "bedingungen": 8338,
      "bald": 8339,
      "sense": 8340,
      "note": 8341,
      "adv": 8342,
      "Col": 8343,
      "esh": 8344,
      "ET": 8345,
      "vö": 8346,
      "click": 8347,
      "Club": 8348,
      "jobs": 8349,
      "Agen": 8350,
      "City": 8351,
      "Strand": 8352,
      "trotz": 8353,
      "Erweiterung": 8354,
      "plann": 8355,
      "gangenen": 8356,
      "kulture": 8357,
      "Since": 8358,
      "sieht": 8359,
      "ktive": 8360,
      "ini": 8361,
      "unities": 8362,
      "jedes": 8363,
      "Management": 8364,
      "choice": 8365,
      "conclus": 8366,
      "integration": 8367,
      "Thank": 8368,
      "undes": 8369,
      "relev": 8370,
      "fail": 8371,
      "simple": 8372,
      "unsch": 8373,
      "Mitarbeiter": 8374,
      "196": 8375,
      "values": 8376,
      "prüfen": 8377,
      "objectives": 8378,
      "ava": 8379,
      "worten": 8380,
      "hohe": 8381,
      "stage": 8382,
      "gesamt": 8383,
      "package": 8384,
      "igent": 8385,
      "wirtschaftliche": 8386,
      "Enter": 8387,
      "poor": 8388,
      "flä": 8389,
      "Pass": 8390,
      "Folgen": 8391,
      "Entschließung": 8392,
      "richten": 8393,
      "received": 8394,
      "double": 8395,
      "Behörden": 8396,
      "band": 8397,
      "Nutzung": 8398,
      "guide": 8399,
      "immungen": 8400,
      "cul": 8401,
      "satis": 8402,
      "aspe": 8403,
      "MS": 8404,
      "Anal": 8405,
      "gal": 8406,
      "Lisbon": 8407,
      "itness": 8408,
      "alte": 8409,
      "regarding": 8410,
      "ological": 8411,
      "mend": 8412,
      "ills": 8413,
      "Reise": 8414,
      "ios": 8415,
      "Dokument": 8416,
      "ufig": 8417,
      "Don": 8418,
      "Bur": 8419,
      "hotels": 8420,
      "wise": 8421,
      "jour": 8422,
      "antic": 8423,
      "equipment": 8424,
      "Pan": 8425,
      "Global": 8426,
      "tempor": 8427,
      "applications": 8428,
      "spect": 8429,
      "efficient": 8430,
      "Ham": 8431,
      "door": 8432,
      "OL": 8433,
      "gelegen": 8434,
      "gefähr": 8435,
      "Benutzer": 8436,
      "eller": 8437,
      "move": 8438,
      "ris": 8439,
      "purch": 8440,
      "ersch": 8441,
      "Prior": 8442,
      "Volks": 8443,
      "industrial": 8444,
      "Frankreich": 8445,
      "rom": 8446,
      "airport": 8447,
      "Server": 8448,
      "buch": 8449,
      "Aufen": 8450,
      "download": 8451,
      "ieben": 8452,
      "atmosp": 8453,
      "Ober": 8454,
      "benefit": 8455,
      "Some": 8456,
      "popular": 8457,
      "territ": 8458,
      "Lösungen": 8459,
      "Augen": 8460,
      "agricultural": 8461,
      "Wochen": 8462,
      "wichtigsten": 8463,
      "sun": 8464,
      "Aufenth": 8465,
      "potential": 8466,
      "Les": 8467,
      "aner": 8468,
      "Liss": 8469,
      "Ukra": 8470,
      "instrument": 8471,
      "Here": 8472,
      "Notwend": 8473,
      "ón": 8474,
      "Damit": 8475,
      "Veranst": 8476,
      "pite": 8477,
      "publik": 8478,
      "gerne": 8479,
      "broad": 8480,
      "engine": 8481,
      "Personal": 8482,
      "Wachstum": 8483,
      "south": 8484,
      "seas": 8485,
      "Fur": 8486,
      "regular": 8487,
      "Pla": 8488,
      "prob": 8489,
      "nice": 8490,
      "hafen": 8491,
      "Bitte": 8492,
      "Mich": 8493,
      "treatment": 8494,
      "rid": 8495,
      "objective": 8496,
      "Informations": 8497,
      "former": 8498,
      "prozess": 8499,
      "reports": 8500,
      "Forder": 8501,
      "Mer": 8502,
      "series": 8503,
      "wonder": 8504,
      "Stunden": 8505,
      "ennung": 8506,
      "respond": 8507,
      "appear": 8508,
      "Sto": 8509,
      "mehrere": 8510,
      "limited": 8511,
      "quickly": 8512,
      "fördern": 8513,
      "below": 8514,
      "vertr": 8515,
      "wobei": 8516,
      "Fach": 8517,
      "gy": 8518,
      "learn": 8519,
      "wenden": 8520,
      "goods": 8521,
      "ograph": 8522,
      "Auswahl": 8523,
      "hinsichtlich": 8524,
      "experien": 8525,
      "suit": 8526,
      "icles": 8527,
      "verg": 8528,
      "breit": 8529,
      "floor": 8530,
      "Now": 8531,
      "nachhalt": 8532,
      "covered": 8533,
      "bezüglich": 8534,
      "creation": 8535,
      "stellungen": 8536,
      "beein": 8537,
      "fahrt": 8538,
      "nissen": 8539,
      "itel": 8540,
      "iko": 8541,
      "örper": 8542,
      "figur": 8543,
      "Get": 8544,
      "counter": 8545,
      "zahlen": 8546,
      "Verbesserung": 8547,
      "profession": 8548,
      "Lissabon": 8549,
      "Affairs": 8550,
      "Business": 8551,
      "stoff": 8552,
      "Kern": 8553,
      "ganze": 8554,
      "ganzen": 8555,
      "angemessen": 8556,
      "promise": 8557,
      "fortunately": 8558,
      "rail": 8559,
      "spac": 8560,
      "enthält": 8561,
      "gerä": 8562,
      "entwickeln": 8563,
      "san": 8564,
      "Gree": 8565,
      "Innov": 8566,
      "liz": 8567,
      "film": 8568,
      "mis": 8569,
      "\"\".\"": 8570,
      "ski": 8571,
      "Gesundheit": 8572,
      "successful": 8573,
      "Mic": 8574,
      "öhn": 8575,
      "Binnenmarkt": 8576,
      "beteil": 8577,
      "ermöglichen": 8578,
      "Di": 8579,
      "ico": 8580,
      "huge": 8581,
      "brigen": 8582,
      "Gew": 8583,
      "rein": 8584,
      "focus": 8585,
      "gelt": 8586,
      "Macht": 8587,
      "genannten": 8588,
      "placed": 8589,
      "geeig": 8590,
      "Barcelona": 8591,
      "contains": 8592,
      "Central": 8593,
      "achieved": 8594,
      "plies": 8595,
      "spar": 8596,
      "inne": 8597,
      "seems": 8598,
      "garden": 8599,
      "Bro": 8600,
      "indeed": 8601,
      "PS": 8602,
      "Konferenz": 8603,
      "ipl": 8604,
      "June": 8605,
      "register": 8606,
      "Anfang": 8607,
      "mobile": 8608,
      "six": 8609,
      "dynam": 8610,
      "Material": 8611,
      "recently": 8612,
      "Tage": 8613,
      "onnen": 8614,
      "irgend": 8615,
      "deliver": 8616,
      "nation": 8617,
      "sterreich": 8618,
      "fonds": 8619,
      "pie": 8620,
      "oppel": 8621,
      "erlau": 8622,
      "zy": 8623,
      "Schaffung": 8624,
      "immen": 8625,
      "ends": 8626,
      "ope": 8627,
      "Lauf": 8628,
      "erster": 8629,
      "gewä": 8630,
      "office": 8631,
      "erweise": 8632,
      "stens": 8633,
      "Ferien": 8634,
      "steller": 8635,
      "Krieg": 8636,
      "Angebot": 8637,
      "size": 8638,
      "Social": 8639,
      "Amend": 8640,
      "feld": 8641,
      "dring": 8642,
      "Liefer": 8643,
      "dat": 8644,
      "news": 8645,
      "Somm": 8646,
      "levels": 8647,
      "Ok": 8648,
      "hoben": 8649,
      "beginning": 8650,
      "highly": 8651,
      "exchange": 8652,
      "haupt": 8653,
      "scient": 8654,
      "Miss": 8655,
      "schließend": 8656,
      "dialogue": 8657,
      "Eur": 8658,
      "furn": 8659,
      "Finally": 8660,
      "Roman": 8661,
      "Ergebnisse": 8662,
      "Sc": 8663,
      "sterdam": 8664,
      "Nat": 8665,
      "smo": 8666,
      "places": 8667,
      "added": 8668,
      "creen": 8669,
      "congratul": 8670,
      "oil": 8671,
      "IL": 8672,
      "Süd": 8673,
      "Yor": 8674,
      "Aut": 8675,
      "Lat": 8676,
      "Gelegenheit": 8677,
      "iveness": 8678,
      "Verwendung": 8679,
      "Bad": 8680,
      "Amsterdam": 8681,
      "Russland": 8682,
      "Sil": 8683,
      "stances": 8684,
      "vorschriften": 8685,
      "ife": 8686,
      "Super": 8687,
      "gefunden": 8688,
      "koll": 8689,
      "asked": 8690,
      "everyone": 8691,
      "exe": 8692,
      "verfüg": 8693,
      "treffen": 8694,
      "video": 8695,
      "wertungen": 8696,
      "kan": 8697,
      "export": 8698,
      "häre": 8699,
      "Darüber": 8700,
      "Solid": 8701,
      "governments": 8702,
      "völlig": 8703,
      "arm": 8704,
      "relevant": 8705,
      "wood": 8706,
      "Initiative": 8707,
      "attem": 8708,
      "Cap": 8709,
      "SS": 8710,
      "Arbeitspl": 8711,
      "Oc": 8712,
      "verbessern": 8713,
      "FR": 8714,
      "direction": 8715,
      "TH": 8716,
      "server": 8717,
      "ured": 8718,
      "Woche": 8719,
      "Fehler": 8720,
      "balance": 8721,
      "Transport": 8722,
      "aving": 8723,
      "konkre": 8724,
      "einzig": 8725,
      "Notwendigkeit": 8726,
      "Well": 8727,
      "Linux": 8728,
      "union": 8729,
      "Anzahl": 8730,
      "commercial": 8731,
      "Exper": 8732,
      "Voraus": 8733,
      "whose": 8734,
      "nern": 8735,
      "aufzu": 8736,
      "üsse": 8737,
      "increased": 8738,
      "verwenden": 8739,
      "grundlegen": 8740,
      "soziale": 8741,
      "agreed": 8742,
      "letter": 8743,
      "UR": 8744,
      "Gip": 8745,
      "eigene": 8746,
      "theless": 8747,
      "Mac": 8748,
      "fix": 8749,
      "carried": 8750,
      "wall": 8751,
      "Herzen": 8752,
      "tliche": 8753,
      "stress": 8754,
      "Tor": 8755,
      "großer": 8756,
      "dang": 8757,
      "aul": 8758,
      "guten": 8759,
      "gehören": 8760,
      "phys": 8761,
      "consumers": 8762,
      "IV": 8763,
      "supply": 8764,
      "quar": 8765,
      "higher": 8766,
      "klus": 8767,
      "wohn": 8768,
      "keyword": 8769,
      "stic": 8770,
      "shows": 8771,
      "ially": 8772,
      "offenen": 8773,
      "Gewalt": 8774,
      "subsid": 8775,
      "principles": 8776,
      "Post": 8777,
      "mem": 8778,
      "Hinter": 8779,
      "aschinen": 8780,
      "erve": 8781,
      "schließen": 8782,
      "pret": 8783,
      "isted": 8784,
      "Neu": 8785,
      "Eigen": 8786,
      "verfügen": 8787,
      "verstär": 8788,
      "Berg": 8789,
      "spezif": 8790,
      "Sim": 8791,
      ").,": 8792,
      "condu": 8793,
      "Zeitpunkt": 8794,
      "setting": 8795,
      "Cal": 8796,
      "amendment": 8797,
      "istische": 8798,
      "Second": 8799,
      "source": 8800,
      "plat": 8801,
      "sicherheit": 8802,
      "imming": 8803,
      "sustainable": 8804,
      "grenz": 8805,
      "similar": 8806,
      "stag": 8807,
      "ffet": 8808,
      "günst": 8809,
      "arg": 8810,
      "bestät": 8811,
      "Familie": 8812,
      "ero": 8813,
      "reviews": 8814,
      "considered": 8815,
      "schnitt": 8816,
      "Further": 8817,
      "Jugend": 8818,
      "dro": 8819,
      "pflich": 8820,
      "possibility": 8821,
      "worth": 8822,
      "abor": 8823,
      "wissenschaft": 8824,
      "diskut": 8825,
      "choose": 8826,
      "Män": 8827,
      "Gemeinschafts": 8828,
      "gesprochen": 8829,
      "perhaps": 8830,
      "nä": 8831,
      "pain": 8832,
      "nuclear": 8833,
      "Ca": 8834,
      "veh": 8835,
      "größten": 8836,
      "commitment": 8837,
      "zeugt": 8838,
      "Of": 8839,
      "lam": 8840,
      "mod": 8841,
      "maßnahmen": 8842,
      "Tat": 8843,
      "Develop": 8844,
      "stark": 8845,
      "Mai": 8846,
      "went": 8847,
      "status": 8848,
      "materials": 8849,
      "leb": 8850,
      "meinem": 8851,
      "Golf": 8852,
      "Article": 8853,
      "Juni": 8854,
      "Maß": 8855,
      "itation": 8856,
      "volution": 8857,
      "circ": 8858,
      "Überein": 8859,
      "Änderungen": 8860,
      "categor": 8861,
      "effects": 8862,
      "closed": 8863,
      "32": 8864,
      "ähn": 8865,
      "Therefore": 8866,
      "zunächst": 8867,
      "riften": 8868,
      "atast": 8869,
      "wählen": 8870,
      "gesamte": 8871,
      "mäßig": 8872,
      "Sum": 8873,
      "elekt": 8874,
      "matters": 8875,
      "thanks": 8876,
      "mä": 8877,
      "Museum": 8878,
      "iglich": 8879,
      "vorhand": 8880,
      "trip": 8881,
      "shown": 8882,
      "Auss": 8883,
      "Hy": 8884,
      "ption": 8885,
      "aspects": 8886,
      "36": 8887,
      "Nieder": 8888,
      "Dom": 8889,
      "iation": 8890,
      "stein": 8891,
      "green": 8892,
      "tatsächlich": 8893,
      "sorgen": 8894,
      "innovative": 8895,
      "xis": 8896,
      "EM": 8897,
      "Zw": 8898,
      "Erfahrung": 8899,
      "orient": 8900,
      "spruch": 8901,
      "Regierungen": 8902,
      "scht": 8903,
      "Wahr": 8904,
      "Debian": 8905,
      "tool": 8906,
      "Spain": 8907,
      "frieden": 8908,
      "promote": 8909,
      "rought": 8910,
      "Pf": 8911,
      "HT": 8912,
      "fält": 8913,
      "gült": 8914,
      "Vertrags": 8915,
      "prepared": 8916,
      "Koso": 8917,
      "Open": 8918,
      "ehm": 8919,
      "Agr": 8920,
      "obtain": 8921,
      "Produktion": 8922,
      "capacity": 8923,
      "iterrane": 8924,
      "sourcen": 8925,
      "König": 8926,
      "ausschuss": 8927,
      "sufficient": 8928,
      "freien": 8929,
      "Ph": 8930,
      "Neben": 8931,
      "liance": 8932,
      "usion": 8933,
      "eindeut": 8934,
      "Umgebung": 8935,
      "latest": 8936,
      "Während": 8937,
      "Beschäftigung": 8938,
      "Einführung": 8939,
      "schriftlich": 8940,
      "ique": 8941,
      "lower": 8942,
      "behind": 8943,
      "tung": 8944,
      "details": 8945,
      "summer": 8946,
      "kü": 8947,
      "mented": 8948,
      "uchen": 8949,
      "train": 8950,
      "opportunities": 8951,
      "draft": 8952,
      "artige": 8953,
      "Position": 8954,
      "öffnet": 8955,
      "vertreten": 8956,
      "bauen": 8957,
      "print": 8958,
      "Konfli": 8959,
      "registr": 8960,
      "pressure": 8961,
      "akter": 8962,
      "Loc": 8963,
      "response": 8964,
      "gestell": 8965,
      "Italy": 8966,
      "Gesundheits": 8967,
      "Stellung": 8968,
      "Kommunik": 8969,
      "Got": 8970,
      "ierenden": 8971,
      "sofort": 8972,
      "hne": 8973,
      "Republic": 8974,
      "thin": 8975,
      "Kontakt": 8976,
      "kit": 8977,
      "ufen": 8978,
      "Computer": 8979,
      "external": 8980,
      "Sam": 8981,
      "mbol": 8982,
      "verstehen": 8983,
      "contract": 8984,
      "death": 8985,
      "Film": 8986,
      "providing": 8987,
      "Anwend": 8988,
      "determin": 8989,
      "York": 8990,
      "Cre": 8991,
      "review": 8992,
      "accommodation": 8993,
      "hindern": 8994,
      "Install": 8995,
      "reached": 8996,
      "DVD": 8997,
      "ored": 8998,
      "iplom": 8999,
      "rang": 9000,
      "Rot": 9001,
      "Dabei": 9002,
      "Integration": 9003,
      "Leit": 9004,
      "ki": 9005,
      "Vereinbar": 9006,
      "äußerst": 9007,
      "atmosphere": 9008,
      "easily": 9009,
      "1998": 9010,
      "spo": 9011,
      "exhib": 9012,
      "arity": 9013,
      "empf": 9014,
      "WTO": 9015,
      "cup": 9016,
      "ses": 9017,
      "ühm": 9018,
      "played": 9019,
      "decided": 9020,
      "Ratspräsident": 9021,
      "bestimmte": 9022,
      "deck": 9023,
      "lies": 9024,
      "uted": 9025,
      "hohen": 9026,
      "Market": 9027,
      "Bul": 9028,
      "Africa": 9029,
      "reduce": 9030,
      "ault": 9031,
      "Party": 9032,
      "Systems": 9033,
      "stands": 9034,
      "rema": 9035,
      "ney": 9036,
      "SP": 9037,
      "option": 9038,
      "concept": 9039,
      "adap": 9040,
      "Eing": 9041,
      "criter": 9042,
      "AB": 9043,
      "produced": 9044,
      "somit": 9045,
      "beschäft": 9046,
      "Wettbewerb": 9047,
      "Aktivitäten": 9048,
      "ette": 9049,
      "lediglich": 9050,
      "liberal": 9051,
      "Sprache": 9052,
      "legung": 9053,
      "Val": 9054,
      "block": 9055,
      "arily": 9056,
      "gewährleisten": 9057,
      "Del": 9058,
      "Dez": 9059,
      "talk": 9060,
      "verpflich": 9061,
      "trägt": 9062,
      "Höhe": 9063,
      "aust": 9064,
      "cou": 9065,
      "Wein": 9066,
      "sl": 9067,
      "fluss": 9068,
      "British": 9069,
      "fehlen": 9070,
      "bein": 9071,
      "neigh": 9072,
      "yer": 9073,
      "compre": 9074,
      "ado": 9075,
      "istics": 9076,
      "lock": 9077,
      "ierter": 9078,
      "Convention": 9079,
      "äude": 9080,
      "bringt": 9081,
      "Medien": 9082,
      "secure": 9083,
      "Italien": 9084,
      "reading": 9085,
      "ees": 9086,
      "wünschen": 9087,
      "erfolgreich": 9088,
      "48": 9089,
      "ark": 9090,
      "submitted": 9091,
      "standing": 9092,
      "March": 9093,
      "Drit": 9094,
      "defen": 9095,
      "sprechend": 9096,
      "hören": 9097,
      "vollen": 9098,
      "Ukraine": 9099,
      "gives": 9100,
      "obwohl": 9101,
      "uit": 9102,
      "virt": 9103,
      "bey": 9104,
      "Sup": 9105,
      "ibilities": 9106,
      "property": 9107,
      "Down": 9108,
      "December": 9109,
      "Flughafen": 9110,
      "versuchen": 9111,
      "Services": 9112,
      "announ": 9113,
      "este": 9114,
      "lect": 9115,
      "Oper": 9116,
      "record": 9117,
      "gets": 9118,
      "75": 9119,
      "suffer": 9120,
      "arrange": 9121,
      "priority": 9122,
      "bestimmten": 9123,
      "Sicht": 9124,
      "enlargement": 9125,
      "Tät": 9126,
      "issions": 9127,
      "conven": 9128,
      "parte": 9129,
      "impress": 9130,
      "Bra": 9131,
      "remains": 9132,
      "Bekämpfung": 9133,
      "ession": 9134,
      "Also": 9135,
      "funding": 9136,
      "Komprom": 9137,
      "Western": 9138,
      "Prä": 9139,
      "imension": 9140,
      "Kop": 9141,
      "Standpunkt": 9142,
      "island": 9143,
      "Video": 9144,
      "setzungen": 9145,
      "iately": 9146,
      "zweite": 9147,
      "einschließlich": 9148,
      "Gruppen": 9149,
      "ausgestattet": 9150,
      "Jahrhundert": 9151,
      "tom": 9152,
      "Sen": 9153,
      "infra": 9154,
      "Free": 9155,
      "Spa": 9156,
      "ering": 9157,
      "supported": 9158,
      "consumer": 9159,
      "las": 9160,
      "roat": 9161,
      "leave": 9162,
      "hear": 9163,
      "Kommissarin": 9164,
      "iture": 9165,
      "icy": 9166,
      "Erachten": 9167,
      "billion": 9168,
      "Privat": 9169,
      "Sommer": 9170,
      "meines": 9171,
      "independent": 9172,
      "else": 9173,
      "ffe": 9174,
      "Instrument": 9175,
      "Erachtens": 9176,
      "Dinge": 9177,
      "Kosovo": 9178,
      "foot": 9179,
      "vorliegen": 9180,
      "ras": 9181,
      "Auff": 9182,
      "maß": 9183,
      "sätz": 9184,
      "avoid": 9185,
      "aufgenommen": 9186,
      "Slo": 9187,
      "schütz": 9188,
      "krimin": 9189,
      "Staat": 9190,
      "King": 9191,
      "abzu": 9192,
      "purpose": 9193,
      "restaurants": 9194,
      "Site": 9195,
      "erheb": 9196,
      "zahlreiche": 9197,
      "zeuge": 9198,
      "produce": 9199,
      "wesentlich": 9200,
      "assistance": 9201,
      "Grand": 9202,
      "handel": 9203,
      "movement": 9204,
      "iency": 9205,
      "Bestimmungen": 9206,
      "konzentr": 9207,
      "vorgesehen": 9208,
      "französ": 9209,
      "Booking": 9210,
      "school": 9211,
      "presents": 9212,
      "Inde": 9213,
      "emer": 9214,
      "ara": 9215,
      "rule": 9216,
      "creating": 9217,
      "Hel": 9218,
      "influ": 9219,
      "wurf": 9220,
      "transparen": 9221,
      "Such": 9222,
      "quare": 9223,
      "Nur": 9224,
      "Instit": 9225,
      "engen": 9226,
      "inger": 9227,
      "north": 9228,
      "quiet": 9229,
      "Basis": 9230,
      "ielt": 9231,
      "Italian": 9232,
      "atastrop": 9233,
      "erhält": 9234,
      "perform": 9235,
      "surround": 9236,
      "acceptable": 9237,
      "pointed": 9238,
      "Fortschritte": 9239,
      "Dezember": 9240,
      "tät": 9241,
      "Bon": 9242,
      "comprehens": 9243,
      "gerecht": 9244,
      "Technologie": 9245,
      "wertung": 9246,
      "ghan": 9247,
      "Ren": 9248,
      "allein": 9249,
      "sprün": 9250,
      "Stad": 9251,
      "sagte": 9252,
      "DI": 9253,
      "ike": 9254,
      "industrie": 9255,
      "Gast": 9256,
      "concl": 9257,
      "tains": 9258,
      "apartment": 9259,
      "iterranean": 9260,
      "schätz": 9261,
      "möglichkeiten": 9262,
      "activity": 9263,
      "relation": 9264,
      "leitet": 9265,
      "itzer": 9266,
      "Preise": 9267,
      "Phil": 9268,
      "Punkte": 9269,
      "wander": 9270,
      "Lu": 9271,
      "brought": 9272,
      "ollar": 9273,
      "keits": 9274,
      "braucht": 9275,
      "regulations": 9276,
      "medium": 9277,
      "largest": 9278,
      "ya": 9279,
      "nommen": 9280,
      "written": 9281,
      "base": 9282,
      "steps": 9283,
      "außerdem": 9284,
      "Erklärung": 9285,
      "Bundes": 9286,
      "sitzen": 9287,
      "January": 9288,
      "stelle": 9289,
      "Stelle": 9290,
      "Villa": 9291,
      "Last": 9292,
      "sus": 9293,
      "reign": 9294,
      "solchen": 9295,
      "einheit": 9296,
      "üst": 9297,
      "vorher": 9298,
      "eval": 9299,
      "Mehrheit": 9300,
      "child": 9301,
      "Prü": 9302,
      "pleased": 9303,
      "geln": 9304,
      "Feder": 9305,
      "etimes": 9306,
      "instruments": 9307,
      "dadurch": 9308,
      "except": 9309,
      "äst": 9310,
      "frequ": 9311,
      "Tex": 9312,
      "Schweiz": 9313,
      "Tem": 9314,
      "zweiten": 9315,
      "ilen": 9316,
      "categories": 9317,
      "October": 9318,
      "Det": 9319,
      "Wä": 9320,
      "berühm": 9321,
      "ather": 9322,
      "oben": 9323,
      "losen": 9324,
      "fishing": 9325,
      "expla": 9326,
      "paid": 9327,
      "variety": 9328,
      "section": 9329,
      "morgen": 9330,
      "conference": 9331,
      "iffe": 9332,
      "sha": 9333,
      "insgesamt": 9334,
      "bor": 9335,
      "legenheiten": 9336,
      "renov": 9337,
      "Vorschriften": 9338,
      "mous": 9339,
      "uner": 9340,
      "verse": 9341,
      "thous": 9342,
      "dlich": 9343,
      "instead": 9344,
      "message": 9345,
      "fisher": 9346,
      "ständigen": 9347,
      "és": 9348,
      "Gefahr": 9349,
      "discussion": 9350,
      "utter": 9351,
      "einzige": 9352,
      "gebaut": 9353,
      "repe": 9354,
      "Test": 9355,
      "jün": 9356,
      "Sign": 9357,
      "38": 9358,
      "kil": 9359,
      "Aufmerksam": 9360,
      "became": 9361,
      "relationship": 9362,
      "illegal": 9363,
      "anders": 9364,
      "allowed": 9365,
      "ology": 9366,
      "osop": 9367,
      "ategorien": 9368,
      "Mediterranean": 9369,
      "regards": 9370,
      "CE": 9371,
      "measure": 9372,
      "Every": 9373,
      "dut": 9374,
      "study": 9375,
      "Volk": 9376,
      "falt": 9377,
      "UK": 9378,
      "März": 9379,
      "Analy": 9380,
      "ugs": 9381,
      "**": 9382,
      "stability": 9383,
      "kürz": 9384,
      "Entscheidungen": 9385,
      "fresh": 9386,
      "distance": 9387,
      "vergangenen": 9388,
      "Bilder": 9389,
      "giving": 9390,
      "“,": 9391,
      "ades": 9392,
      "ously": 9393,
      "Protokoll": 9394,
      "obvious": 9395,
      "interesting": 9396,
      "Verkehrs": 9397,
      "Anforderungen": 9398,
      "Cons": 9399,
      "Landwirtschaft": 9400,
      "Oktober": 9401,
      "Mult": 9402,
      "Öffentlich": 9403,
      "rig": 9404,
      "bezogen": 9405,
      "deten": 9406,
      "Küche": 9407,
      "forget": 9408,
      "ries": 9409,
      "legislative": 9410,
      "Freiheit": 9411,
      "Mart": 9412,
      "effort": 9413,
      "vorhanden": 9414,
      "Hung": 9415,
      "gewiesen": 9416,
      "klein": 9417,
      "Universit": 9418,
      "Aktion": 9419,
      "arenz": 9420,
      "bewertungen": 9421,
      "Metho": 9422,
      "started": 9423,
      "Flü": 9424,
      "Log": 9425,
      "98": 9426,
      "ias": 9427,
      "Center": 9428,
      "ürf": 9429,
      "Aufmerksamkeit": 9430,
      "abkommen": 9431,
      "ehe": 9432,
      "Pap": 9433,
      "iker": 9434,
      "Your": 9435,
      "Agent": 9436,
      "Prinzip": 9437,
      "genießen": 9438,
      "Today": 9439,
      "procedures": 9440,
      "leistungs": 9441,
      "verkauf": 9442,
      "Spanish": 9443,
      "brechen": 9444,
      "won": 9445,
      "types": 9446,
      "lösen": 9447,
      "coast": 9448,
      "Ansatz": 9449,
      "Rights": 9450,
      "resse": 9451,
      "rene": 9452,
      "Erzeug": 9453,
      "sonst": 9454,
      "electron": 9455,
      "ques": 9456,
      "Juli": 9457,
      "cement": 9458,
      "rum": 9459,
      "Projekte": 9460,
      "architect": 9461,
      "hair": 9462,
      "preis": 9463,
      "opping": 9464,
      "versity": 9465,
      "iro": 9466,
      "erfahren": 9467,
      "Präsidenten": 9468,
      "itude": 9469,
      "ails": 9470,
      "Tal": 9471,
      "advantage": 9472,
      "hältnis": 9473,
      "shops": 9474,
      "statement": 9475,
      "Bildung": 9476,
      "etary": 9477,
      "Gal": 9478,
      "payment": 9479,
      "accep": 9480,
      "craft": 9481,
      "prises": 9482,
      "compon": 9483,
      "eigentlich": 9484,
      "keiner": 9485,
      "hom": 9486,
      "Berichts": 9487,
      "Gel": 9488,
      "Städ": 9489,
      "Grenzen": 9490,
      "compromise": 9491,
      "transpar": 9492,
      "task": 9493,
      "sole": 9494,
      "Vo": 9495,
      "agenda": 9496,
      "34": 9497,
      "Bio": 9498,
      "exact": 9499,
      "Wider": 9500,
      "otes": 9501,
      "Stär": 9502,
      "damage": 9503,
      "wee": 9504,
      "pover": 9505,
      "Winter": 9506,
      "stärker": 9507,
      "contribution": 9508,
      "occur": 9509,
      "umb": 9510,
      "Belg": 9511,
      "Cr": 9512,
      "01": 9513,
      "provisions": 9514,
      "drive": 9515,
      "Anfrage": 9516,
      "historical": 9517,
      "served": 9518,
      "labour": 9519,
      "Unternehmens": 9520,
      "village": 9521,
      "folgenden": 9522,
      "ateral": 9523,
      "Development": 9524,
      "Bereiche": 9525,
      "ape": 9526,
      "bü": 9527,
      "Datei": 9528,
      "1997": 9529,
      "ato": 9530,
      "Transparenz": 9531,
      "üb": 9532,
      "leider": 9533,
      "Arbeitnehmer": 9534,
      "Gästebewertungen": 9535,
      "auern": 9536,
      "serve": 9537,
      "Bot": 9538,
      "anlage": 9539,
      "Straßen": 9540,
      "enntnis": 9541,
      "minor": 9542,
      "glück": 9543,
      "Solidar": 9544,
      "consist": 9545,
      "late": 9546,
      "July": 9547,
      "dise": 9548,
      "fficiency": 9549,
      "violence": 9550,
      "sports": 9551,
      "EG": 9552,
      "Ged": 9553,
      "poses": 9554,
      "gewöhn": 9555,
      "AK": 9556,
      ".\",\"\"\"": 9557,
      "zi": 9558,
      "perfe": 9559,
      "Ist": 9560,
      "erwarten": 9561,
      "konnten": 9562,
      "During": 9563,
      "wirken": 9564,
      "Nr": 9565,
      "Rooms": 9566,
      "Diskussion": 9567,
      "launch": 9568,
      "temporary": 9569,
      "dienen": 9570,
      "Portugal": 9571,
      "Empfehl": 9572,
      "eingesetzt": 9573,
      "ples": 9574,
      "lives": 9575,
      "IB": 9576,
      "erinn": 9577,
      "sprach": 9578,
      "conflict": 9579,
      "decl": 9580,
      "häufig": 9581,
      "Tagesordnung": 9582,
      "prefer": 9583,
      "wine": 9584,
      "laufen": 9585,
      "ming": 9586,
      "mensch": 9587,
      "...\"\"": 9588,
      "ourselves": 9589,
      "wichtiger": 9590,
      "dient": 9591,
      "documents": 9592,
      "Mann": 9593,
      "ritts": 9594,
      "Mod": 9595,
      "criteria": 9596,
      "nöt": 9597,
      "depart": 9598,
      "Agrar": 9599,
      "legit": 9600,
      "operating": 9601,
      "länger": 9602,
      "accord": 9603,
      "Flor": 9604,
      "wenige": 9605,
      "Investitionen": 9606,
      "Urlaub": 9607,
      "niedr": 9608,
      "tools": 9609,
      "fine": 9610,
      "Nationen": 9611,
      "decken": 9612,
      "Regeln": 9613,
      "zieht": 9614,
      "griffen": 9615,
      "Untersuch": 9616,
      "Auftrag": 9617,
      "roll": 9618,
      "37": 9619,
      "reibung": 9620,
      "integrated": 9621,
      "IF": 9622,
      "Republik": 9623,
      "anced": 9624,
      "sort": 9625,
      "Alt": 9626,
      "distribution": 9627,
      "finally": 9628,
      "Java": 9629,
      "nel": 9630,
      "geber": 9631,
      "Januar": 9632,
      "durchgeführt": 9633,
      "!,\"": 9634,
      "Start": 9635,
      "benefits": 9636,
      "Bulgar": 9637,
      "leiten": 9638,
      "unmittel": 9639,
      "beziehen": 9640,
      "Mid": 9641,
      "Os": 9642,
      "constit": 9643,
      "listen": 9644,
      "Firma": 9645,
      "growing": 9646,
      "Many": 9647,
      "dienst": 9648,
      "spirit": 9649,
      "ücke": 9650,
      "//": 9651,
      "vital": 9652,
      "Centre": 9653,
      "happy": 9654,
      "Meine": 9655,
      "betreffen": 9656,
      "forderung": 9657,
      "erc": 9658,
      "aktuellen": 9659,
      "Linie": 9660,
      "Stu": 9661,
      "ifik": 9662,
      "größte": 9663,
      "limit": 9664,
      "copy": 9665,
      "elements": 9666,
      "ktiven": 9667,
      "University": 9668,
      "wesen": 9669,
      "Lebensmittel": 9670,
      "dent": 9671,
      "Spezial": 9672,
      "produz": 9673,
      "europäischer": 9674,
      "Tradition": 9675,
      "DA": 9676,
      "benötigen": 9677,
      "Sinne": 9678,
      "Schwier": 9679,
      "Afghan": 9680,
      "alternative": 9681,
      "stabil": 9682,
      "offiz": 9683,
      "Mobil": 9684,
      "constant": 9685,
      "ünd": 9686,
      "dank": 9687,
      "heben": 9688,
      "immediately": 9689,
      "Iraq": 9690,
      "highest": 9691,
      "ierende": 9692,
      "ls": 9693,
      "höher": 9694,
      "würdig": 9695,
      "dates": 9696,
      "ays": 9697,
      "Enterprise": 9698,
      "apartments": 9699,
      "plus": 9700,
      "Saf": 9701,
      "helpful": 9702,
      "Although": 9703,
      "Veränder": 9704,
      "Gründen": 9705,
      "transparency": 9706,
      "Hä": 9707,
      "motor": 9708,
      "forces": 9709,
      "ories": 9710,
      "getan": 9711,
      "gehend": 9712,
      "ihres": 9713,
      "fire": 9714,
      "Aufenthalt": 9715,
      "parking": 9716,
      "\"\"...": 9717,
      "ality": 9718,
      "imat": 9719,
      "angesichts": 9720,
      "klass": 9721,
      "Green": 9722,
      "Ve": 9723,
      "goes": 9724,
      "DF": 9725,
      "lichkeiten": 9726,
      "institutional": 9727,
      "She": 9728,
      "mountain": 9729,
      "Koh": 9730,
      "drücklich": 9731,
      "Forschungs": 9732,
      "ham": 9733,
      "nes": 9734,
      "Schn": 9735,
      "Hins": 9736,
      "annual": 9737,
      "equal": 9738,
      "sinn": 9739,
      "kannst": 9740,
      "Hinsicht": 9741,
      "Econom": 9742,
      "cription": 9743,
      "employees": 9744,
      "kontroll": 9745,
      "PH": 9746,
      "geworden": 9747,
      "Rede": 9748,
      "orial": 9749,
      "useful": 9750,
      "friends": 9751,
      "ursprün": 9752,
      "bilden": 9753,
      "idge": 9754,
      "geschaffen": 9755,
      "Präsidentschaft": 9756,
      "Atmosp": 9757,
      "400": 9758,
      "99": 9759,
      "applied": 9760,
      "mas": 9761,
      "zeichnung": 9762,
      "fas": 9763,
      "reality": 9764,
      "numerous": 9765,
      "Öffentlichkeit": 9766,
      "enh": 9767,
      "reli": 9768,
      "wasser": 9769,
      "stock": 9770,
      "Auffassung": 9771,
      "analysis": 9772,
      "NG": 9773,
      "dence": 9774,
      "MP": 9775,
      "eher": 9776,
      "cert": 9777,
      "elections": 9778,
      "daily": 9779,
      "teach": 9780,
      "150": 9781,
      "wart": 9782,
      "veröffentlich": 9783,
      "quis": 9784,
      "challenges": 9785,
      "Sache": 9786,
      "Fon": 9787,
      "AF": 9788,
      "ford": 9789,
      "poverty": 9790,
      "opol": 9791,
      "ille": 9792,
      "bür": 9793,
      "processes": 9794,
      "Bemüh": 9795,
      "persons": 9796,
      "occas": 9797,
      "zusch": 9798,
      "lesen": 9799,
      "übrigen": 9800,
      "Ereign": 9801,
      "wid": 9802,
      "Furthermore": 9803,
      "Vir": 9804,
      "Betrieb": 9805,
      "Cast": 9806,
      "voc": 9807,
      "öffentliche": 9808,
      "historic": 9809,
      "Aufgaben": 9810,
      "solidarity": 9811,
      "33": 9812,
      "sätze": 9813,
      "perman": 9814,
      "thought": 9815,
      "hot": 9816,
      "demokratischen": 9817,
      "operations": 9818,
      "Heute": 9819,
      "Obje": 9820,
      "track": 9821,
      "geleg": 9822,
      "entsprechend": 9823,
      "mic": 9824,
      "werte": 9825,
      "Beteil": 9826,
      "wortern": 9827,
      "weak": 9828,
      "Modell": 9829,
      "Fäh": 9830,
      "erneut": 9831,
      "bathroom": 9832,
      "brand": 9833,
      "berecht": 9834,
      "consequences": 9835,
      "offering": 9836,
      "paar": 9837,
      "saying": 9838,
      "options": 9839,
      "schönen": 9840,
      "legation": 9841,
      "Bürgern": 9842,
[...]
